{
  "version": "1.0",
  "truncation": null,
  "padding": null,
  "added_tokens": [
    {
      "id": 0,
      "content": "<pad>",
      "single_word": false,
      "lstrip": false,
      "rstrip": false,
      "normalized": false,
      "special": true
    },
    {
      "id": 1,
      "content": "<bos>",
      "single_word": false,
      "lstrip": false,
      "rstrip": false,
      "normalized": false,
      "special": true
    },
    {
      "id": 2,
      "content": "<eos>",
      "single_word": false,
      "lstrip": false,
      "rstrip": false,
      "normalized": false,
      "special": true
    },
    {
      "id": 3,
      "content": "<unk>",
      "single_word": false,
      "lstrip": false,
      "rstrip": false,
      "normalized": false,
      "special": true
    }
  ],
  "normalizer": null,
  "pre_tokenizer": {
    "type": "Whitespace"
  },
  "post_processor": null,
  "decoder": null,
  "model": {
    "type": "BPE",
    "dropout": null,
    "unk_token": "<unk>",
    "continuing_subword_prefix": null,
    "end_of_word_suffix": null,
    "fuse_unk": false,
    "byte_fallback": false,
    "ignore_merges": false,
    "vocab": {
      "<pad>": 0,
      "<bos>": 1,
      "<eos>": 2,
      "<unk>": 3,
      "!": 4,
      "\"": 5,
      "#": 6,
      "$": 7,
      "%": 8,
      "&": 9,
      "'": 10,
      "(": 11,
      ")": 12,
      "*": 13,
      "+": 14,
      ",": 15,
      "-": 16,
      ".": 17,
      "/": 18,
      "0": 19,
      "1": 20,
      "2": 21,
      "3": 22,
      "4": 23,
      "5": 24,
      "6": 25,
      "7": 26,
      "8": 27,
      "9": 28,
      ":": 29,
      ";": 30,
      "<": 31,
      "=": 32,
      ">": 33,
      "?": 34,
      "@": 35,
      "[": 36,
      "\\": 37,
      "]": 38,
      "^": 39,
      "_": 40,
      "a": 41,
      "b": 42,
      "c": 43,
      "d": 44,
      "e": 45,
      "f": 46,
      "g": 47,
      "h": 48,
      "i": 49,
      "j": 50,
      "k": 51,
      "l": 52,
      "m": 53,
      "n": 54,
      "o": 55,
      "p": 56,
      "q": 57,
      "r": 58,
      "s": 59,
      "t": 60,
      "u": 61,
      "v": 62,
      "w": 63,
      "x": 64,
      "y": 65,
      "z": 66,
      "{": 67,
      "|": 68,
      "}": 69,
      "~": 70,
      "£": 71,
      "’": 72,
      "😊": 73,
      "😒": 74,
      "😢": 75,
      "th": 76,
      "on": 77,
      "er": 78,
      "at": 79,
      "in": 80,
      "to": 81,
      "en": 82,
      "it": 83,
      "ou": 84,
      "an": 85,
      "ion": 86,
      "re": 87,
      "ing": 88,
      "us": 89,
      "ot": 90,
      "ed": 91,
      "as": 92,
      "ent": 93,
      "the": 94,
      "me": 95,
      "or": 96,
      "ag": 97,
      "al": 98,
      "my": 99,
      "em": 100,
      "is": 101,
      "ation": 102,
      "sit": 103,
      "tom": 104,
      "ha": 105,
      "otion": 106,
      "uation": 107,
      "cus": 108,
      "situation": 109,
      "emotion": 110,
      "custom": 111,
      "customer": 112,
      "agent": 113,
      "and": 114,
      "ar": 115,
      "so": 116,
      "was": 117,
      "ve": 118,
      "you": 119,
      "be": 120,
      "st": 121,
      "that": 122,
      "ay": 123,
      "he": 124,
      "ly": 125,
      "le": 126,
      "wh": 127,
      "id": 128,
      "ow": 129,
      "of": 130,
      "for": 131,
      "ri": 132,
      "el": 133,
      "oo": 134,
      "gh": 135,
      "ch": 136,
      "ad": 137,
      "ke": 138,
      "am": 139,
      "wi": 140,
      "ver": 141,
      "ld": 142,
      "et": 143,
      "out": 144,
      "li": 145,
      "one": 146,
      "do": 147,
      "es": 148,
      "ne": 149,
      "have": 150,
      "we": 151,
      "ut": 152,
      "ic": 153,
      "se": 154,
      "ust": 155,
      "ro": 156,
      "are": 157,
      "ther": 158,
      "su": 159,
      "ac": 160,
      "pp": 161,
      "fe": 162,
      "end": 163,
      "ll": 164,
      "ter": 165,
      "fu": 166,
      "ally": 167,
      "pe": 168,
      "ab": 169,
      "day": 170,
      "some": 171,
      "ho": 172,
      "did": 173,
      "go": 174,
      "ti": 175,
      "ght": 176,
      "with": 177,
      "im": 178,
      "but": 179,
      "no": 180,
      "get": 181,
      "ye": 182,
      "ir": 183,
      "when": 184,
      "wor": 185,
      "mo": 186,
      "all": 187,
      "ould": 188,
      "co": 189,
      "ood": 190,
      "lo": 191,
      "now": 192,
      "time": 193,
      "they": 194,
      "can": 195,
      "very": 196,
      "just": 197,
      "had": 198,
      "not": 199,
      "thing": 200,
      "fri": 201,
      "what": 202,
      "she": 203,
      "ful": 204,
      "tr": 205,
      "up": 206,
      "really": 207,
      "friend": 208,
      "ast": 209,
      "ant": 210,
      "ex": 211,
      "gr": 212,
      "nd": 213,
      "way": 214,
      "her": 215,
      "ate": 216,
      "got": 217,
      "ous": 218,
      "pre": 219,
      "work": 220,
      "good": 221,
      "ake": 222,
      "about": 223,
      "like": 224,
      "ce": 225,
      "ell": 226,
      "feel": 227,
      "con": 228,
      "pr": 229,
      "this": 230,
      "king": 231,
      "how": 232,
      "de": 233,
      "art": 234,
      "un": 235,
      "ss": 236,
      "car": 237,
      "happ": 238,
      "ound": 239,
      "too": 240,
      "any": 241,
      "going": 242,
      "been": 243,
      "new": 244,
      "ere": 245,
      "jo": 246,
      "pl": 247,
      "ek": 248,
      "ur": 249,
      "week": 250,
      "oh": 251,
      "hope": 252,
      "af": 253,
      "ind": 254,
      "know": 255,
      "will": 256,
      "rom": 257,
      "ck": 258,
      "ack": 259,
      "ca": 260,
      "year": 261,
      "sa": 262,
      "thin": 263,
      "him": 264,
      "don": 265,
      "your": 266,
      "ple": 267,
      "them": 268,
      "ty": 269,
      "if": 270,
      "other": 271,
      "ass": 272,
      "there": 273,
      "ight": 274,
      "gu": 275,
      "would": 276,
      "ough": 277,
      "well": 278,
      "app": 279,
      "dis": 280,
      "gre": 281,
      "sh": 282,
      "ra": 283,
      "ool": 284,
      "from": 285,
      "ice": 286,
      "il": 287,
      "com": 288,
      "think": 289,
      "per": 290,
      "ting": 291,
      "last": 292,
      "ge": 293,
      "every": 294,
      "ill": 295,
      "back": 296,
      "want": 297,
      "were": 298,
      "cit": 299,
      "ving": 300,
      "ive": 301,
      "yea": 302,
      "har": 303,
      "sur": 304,
      "make": 305,
      "great": 306,
      "didn": 307,
      "fa": 308,
      "ong": 309,
      "use": 310,
      "orr": 311,
      "sure": 312,
      "te": 313,
      "ven": 314,
      "than": 315,
      "our": 316,
      "bad": 317,
      "mad": 318,
      "ared": 319,
      "went": 320,
      "bo": 321,
      "lot": 322,
      "see": 323,
      "happy": 324,
      "could": 325,
      "old": 326,
      "excit": 327,
      "ted": 328,
      "mu": 329,
      "ways": 330,
      "ard": 331,
      "job": 332,
      "sch": 333,
      "yes": 334,
      "ain": 335,
      "kid": 336,
      "fi": 337,
      "home": 338,
      "pris": 339,
      "fin": 340,
      "bet": 341,
      "dog": 342,
      "sp": 343,
      "always": 344,
      "off": 345,
      "over": 346,
      "peo": 347,
      "wa": 348,
      "people": 349,
      "fo": 350,
      "surpris": 351,
      "loo": 352,
      "ide": 353,
      "own": 354,
      "much": 355,
      "his": 356,
      "ought": 357,
      "hard": 358,
      "school": 359,
      "ated": 360,
      "ating": 361,
      "today": 362,
      "wait": 363,
      "ep": 364,
      "sto": 365,
      "nice": 366,
      "sad": 367,
      "yeah": 368,
      "cause": 369,
      "sel": 370,
      "fel": 371,
      "felt": 372,
      "po": 373,
      "fir": 374,
      "excited": 375,
      "sc": 376,
      "ite": 377,
      "never": 378,
      "ily": 379,
      "son": 380,
      "first": 381,
      "more": 382,
      "ked": 383,
      "because": 384,
      "vi": 385,
      "able": 386,
      "self": 387,
      "ner": 388,
      "by": 389,
      "try": 390,
      "happen": 391,
      "bro": 392,
      "love": 393,
      "has": 394,
      "terri": 395,
      "ish": 396,
      "friends": 397,
      "surprised": 398,
      "ved": 399,
      "someone": 400,
      "who": 401,
      "di": 402,
      "take": 403,
      "read": 404,
      "night": 405,
      "oud": 406,
      "start": 407,
      "part": 408,
      "right": 409,
      "bu": 410,
      "years": 411,
      "rec": 412,
      "ip": 413,
      "ouse": 414,
      "ess": 415,
      "ugh": 416,
      "ig": 417,
      "ble": 418,
      "whi": 419,
      "after": 420,
      "qu": 421,
      "ident": 422,
      "tle": 423,
      "lit": 424,
      "fam": 425,
      "atch": 426,
      "long": 427,
      "man": 428,
      "irl": 429,
      "par": 430,
      "pro": 431,
      "house": 432,
      "assed": 433,
      "girl": 434,
      "sound": 435,
      "igh": 436,
      "even": 437,
      "pret": 438,
      "pec": 439,
      "hel": 440,
      "tri": 441,
      "med": 442,
      "need": 443,
      "ga": 444,
      "family": 445,
      "its": 446,
      "made": 447,
      "life": 448,
      "mis": 449,
      "joy": 450,
      "stu": 451,
      "proud": 452,
      "should": 453,
      "je": 454,
      "still": 455,
      "times": 456,
      "pretty": 457,
      "ious": 458,
      "nex": 459,
      "ace": 460,
      "mon": 461,
      "ster": 462,
      "kids": 463,
      "little": 464,
      "help": 465,
      "act": 466,
      "la": 467,
      "sorr": 468,
      "ssed": 469,
      "bar": 470,
      "sorry": 471,
      "thr": 472,
      "hear": 473,
      "fun": 474,
      "thank": 475,
      "gry": 476,
      "won": 477,
      "though": 478,
      "ine": 479,
      "hopeful": 480,
      "into": 481,
      "ach": 482,
      "something": 483,
      "ready": 484,
      "away": 485,
      "conf": 486,
      "fore": 487,
      "ning": 488,
      "raid": 489,
      "che": 490,
      "best": 491,
      "afraid": 492,
      "things": 493,
      "kind": 494,
      "noy": 495,
      "annoy": 496,
      "trust": 497,
      "why": 498,
      "getting": 499,
      "mem": 500,
      "angry": 501,
      "next": 502,
      "sent": 503,
      "wow": 504,
      "br": 505,
      "prep": 506,
      "ment": 507,
      "sounds": 508,
      "better": 509,
      "let": 510,
      "ick": 511,
      "come": 512,
      "lu": 513,
      "found": 514,
      "oney": 515,
      "play": 516,
      "most": 517,
      "does": 518,
      "then": 519,
      "cont": 520,
      "money": 521,
      "where": 522,
      "saw": 523,
      "weekend": 524,
      "while": 525,
      "fied": 526,
      "watch": 527,
      "down": 528,
      "prepared": 529,
      "ber": 530,
      "ma": 531,
      "da": 532,
      "lone": 533,
      "ently": 534,
      "feeling": 535,
      "ort": 536,
      "confident": 537,
      "oin": 538,
      "impre": 539,
      "lonely": 540,
      "ies": 541,
      "appoin": 542,
      "being": 543,
      "lie": 544,
      "days": 545,
      "month": 546,
      "anx": 547,
      "tur": 548,
      "ens": 549,
      "before": 550,
      "miss": 551,
      "embar": 552,
      "ild": 553,
      "inter": 554,
      "wal": 555,
      "find": 556,
      "red": 557,
      "um": 558,
      "must": 559,
      "wo": 560,
      "alous": 561,
      "jealous": 562,
      "bor": 563,
      "may": 564,
      "gl": 565,
      "gust": 566,
      "vie": 567,
      "embarr": 568,
      "big": 569,
      "und": 570,
      "put": 571,
      "iz": 572,
      "disappoin": 573,
      "tal": 574,
      "myself": 575,
      "guil": 576,
      "bab": 577,
      "sterday": 578,
      "yesterday": 579,
      "annoyed": 580,
      "disgust": 581,
      "der": 582,
      "ateful": 583,
      "cer": 584,
      "sho": 585,
      "ta": 586,
      "grateful": 587,
      "guilty": 588,
      "anxious": 589,
      "terrified": 590,
      "stal": 591,
      "awe": 592,
      "took": 593,
      "cou": 594,
      "ever": 595,
      "gic": 596,
      "col": 597,
      "ul": 598,
      "ughter": 599,
      "daughter": 600,
      "impressed": 601,
      "used": 602,
      "rious": 603,
      "ers": 604,
      "nostal": 605,
      "their": 606,
      "set": 607,
      "fr": 608,
      "recently": 609,
      "disappointed": 610,
      "age": 611,
      "around": 612,
      "thought": 613,
      "ually": 614,
      "dri": 615,
      "pay": 616,
      "ten": 617,
      "ward": 618,
      "icip": 619,
      "nostalgic": 620,
      "scared": 621,
      "brother": 622,
      "furious": 623,
      "awesome": 624,
      "looking": 625,
      "care": 626,
      "ok": 627,
      "only": 628,
      "through": 629,
      "asha": 630,
      "dev": 631,
      "anticip": 632,
      "belie": 633,
      "ashamed": 634,
      "keep": 635,
      "child": 636,
      "wife": 637,
      "ned": 638,
      "ft": 639,
      "ree": 640,
      "disgusted": 641,
      "few": 642,
      "came": 643,
      "wanted": 644,
      "under": 645,
      "embarrassed": 646,
      "band": 647,
      "ents": 648,
      "lol": 649,
      "cr": 650,
      "ago": 651,
      "ct": 652,
      "everything": 653,
      "content": 654,
      "ensive": 655,
      "nt": 656,
      "test": 657,
      "devast": 658,
      "bir": 659,
      "anticipating": 660,
      "plan": 661,
      "bl": 662,
      "game": 663,
      "thats": 664,
      "sin": 665,
      "doing": 666,
      "anything": 667,
      "wish": 668,
      "having": 669,
      "mom": 670,
      "cle": 671,
      "side": 672,
      "devastated": 673,
      "luck": 674,
      "ose": 675,
      "clo": 676,
      "sometimes": 677,
      "maybe": 678,
      "iment": 679,
      "believe": 680,
      "mm": 681,
      "orrow": 682,
      "live": 683,
      "joyful": 684,
      "sentiment": 685,
      "ried": 686,
      "happened": 687,
      "again": 688,
      "sentimental": 689,
      "call": 690,
      "caring": 691,
      "since": 692,
      "left": 693,
      "cat": 694,
      "trusting": 695,
      "say": 696,
      "guy": 697,
      "show": 698,
      "neigh": 699,
      "cl": 700,
      "food": 701,
      "ang": 702,
      "stand": 703,
      "birth": 704,
      "lost": 705,
      "na": 706,
      "hus": 707,
      "nerv": 708,
      "ts": 709,
      "makes": 710,
      "member": 711,
      "ure": 712,
      "nervous": 713,
      "girlfriend": 714,
      "ith": 715,
      "dy": 716,
      "dr": 717,
      "vor": 718,
      "coming": 719,
      "many": 720,
      "neighbor": 721,
      "faith": 722,
      "colle": 723,
      "husband": 724,
      "glad": 725,
      "bit": 726,
      "hate": 727,
      "ue": 728,
      "once": 729,
      "such": 730,
      "person": 731,
      "ama": 732,
      "pa": 733,
      "birthday": 734,
      "sis": 735,
      "grad": 736,
      "late": 737,
      "tell": 738,
      "those": 739,
      "told": 740,
      "alone": 741,
      "died": 742,
      "aw": 743,
      "place": 744,
      "ance": 745,
      "comp": 746,
      "trying": 747,
      "done": 748,
      "same": 749,
      "remember": 750,
      "seem": 751,
      "tor": 752,
      "appre": 753,
      "mar": 754,
      "appreh": 755,
      "ash": 756,
      "hone": 757,
      "apprehensive": 758,
      "boy": 759,
      "tomorrow": 760,
      "cool": 761,
      "parents": 762,
      "high": 763,
      "pu": 764,
      "look": 765,
      "real": 766,
      "bought": 767,
      "wasn": 768,
      "pped": 769,
      "favor": 770,
      "college": 771,
      "ru": 772,
      "upset": 773,
      "vac": 774,
      "supp": 775,
      "cked": 776,
      "ak": 777,
      "dec": 778,
      "amaz": 779,
      "sm": 780,
      "haha": 781,
      "oom": 782,
      "super": 783,
      "here": 784,
      "stay": 785,
      "pt": 786,
      "ater": 787,
      "est": 788,
      "soon": 789,
      "wr": 790,
      "ence": 791,
      "lea": 792,
      "trip": 793,
      "grand": 794,
      "sister": 795,
      "mother": 796,
      "said": 797,
      "everyone": 798,
      "00": 799,
      "another": 800,
      "class": 801,
      "faithful": 802,
      "prom": 803,
      "give": 804,
      "finally": 805,
      "favorite": 806,
      "vis": 807,
      "ial": 808,
      "scar": 809,
      "two": 810,
      "guess": 811,
      "mor": 812,
      "party": 813,
      "view": 814,
      "ist": 815,
      "almost": 816,
      "ise": 817,
      "working": 818,
      "store": 819,
      "ff": 820,
      "gro": 821,
      "buy": 822,
      "vacation": 823,
      "ook": 824,
      "passed": 825,
      "ger": 826,
      "bre": 827,
      "knew": 828,
      "ear": 829,
      "started": 830,
      "dad": 831,
      "expec": 832,
      "understand": 833,
      "scary": 834,
      "ason": 835,
      "baby": 836,
      "hur": 837,
      "amazing": 838,
      "ste": 839,
      "terrible": 840,
      "eat": 841,
      "youn": 842,
      "clean": 843,
      "sed": 844,
      "cre": 845,
      "rest": 846,
      "win": 847,
      "enjoy": 848,
      "months": 849,
      "least": 850,
      "mean": 851,
      "ball": 852,
      "bus": 853,
      "op": 854,
      "ry": 855,
      "ser": 856,
      "fort": 857,
      "taking": 858,
      "waiting": 859,
      "leep": 860,
      "mmer": 861,
      "stre": 862,
      "ity": 863,
      "swe": 864,
      "iff": 865,
      "forward": 866,
      "tic": 867,
      "without": 868,
      "diff": 869,
      "wn": 870,
      "meet": 871,
      "weeks": 872,
      "fl": 873,
      "also": 874,
      "morning": 875,
      "turn": 876,
      "gave": 877,
      "hit": 878,
      "sing": 879,
      "less": 880,
      "ping": 881,
      "actually": 882,
      "nothing": 883,
      "interview": 884,
      "port": 885,
      "til": 886,
      "ase": 887,
      "haven": 888,
      "hu": 889,
      "tra": 890,
      "gether": 891,
      "sick": 892,
      "together": 893,
      "pet": 894,
      "pic": 895,
      "mind": 896,
      "memor": 897,
      "order": 898,
      "quite": 899,
      "okay": 900,
      "room": 901,
      "ont": 902,
      "cra": 903,
      "cut": 904,
      "ran": 905,
      "ended": 906,
      "cks": 907,
      "min": 908,
      "run": 909,
      "tried": 910,
      "couldn": 911,
      "bed": 912,
      "ship": 913,
      "enough": 914,
      "ie": 915,
      "thanks": 916,
      "moved": 917,
      "yet": 918,
      "might": 919,
      "ton": 920,
      "ork": 921,
      "visit": 922,
      "stuff": 923,
      "phone": 924,
      "unch": 925,
      "heard": 926,
      "sleep": 927,
      "until": 928,
      "head": 929,
      "move": 930,
      "spec": 931,
      "exam": 932,
      "door": 933,
      "cow": 934,
      "leave": 935,
      "hour": 936,
      "ump": 937,
      "movie": 938,
      "grat": 939,
      "broke": 940,
      "hood": 941,
      "att": 942,
      "zy": 943,
      "summer": 944,
      "thinking": 945,
      "front": 946,
      "ket": 947,
      "acc": 948,
      "hor": 949,
      "congrat": 950,
      "des": 951,
      "din": 952,
      "talk": 953,
      "past": 954,
      "watching": 955,
      "whole": 956,
      "close": 957,
      "wonder": 958,
      "couple": 959,
      "world": 960,
      "idea": 961,
      "sk": 962,
      "hopefully": 963,
      "lear": 964,
      "ations": 965,
      "doesn": 966,
      "worried": 967,
      "dont": 968,
      "vo": 969,
      "defin": 970,
      "thankful": 971,
      "which": 972,
      "else": 973,
      "these": 974,
      "gi": 975,
      "town": 976,
      "anc": 977,
      "sweet": 978,
      "wrong": 979,
      "drive": 980,
      "outside": 981,
      "anyone": 982,
      "cowork": 983,
      "mine": 984,
      "light": 985,
      "date": 986,
      "rel": 987,
      "itely": 988,
      "forgot": 989,
      "walking": 990,
      "memories": 991,
      "pass": 992,
      "worked": 993,
      "dre": 994,
      "heal": 995,
      "ush": 996,
      "definitely": 997,
      "deal": 998,
      "peri": 999,
      "ken": 1000,
      "turned": 1001,
      "far": 1002,
      "ially": 1003,
      "chan": 1004,
      "accident": 1005,
      "hand": 1006,
      "doc": 1007,
      "foot": 1008,
      "probab": 1009,
      "needed": 1010,
      "company": 1011,
      "eas": 1012,
      "probably": 1013,
      "shocked": 1014,
      "dinner": 1015,
      "cant": 1016,
      "posit": 1017,
      "spe": 1018,
      "already": 1019,
      "seen": 1020,
      "break": 1021,
      "ps": 1022,
      "boyfriend": 1023,
      "cal": 1024,
      "tre": 1025,
      "true": 1026,
      "playing": 1027,
      "cert": 1028,
      "promotion": 1029,
      "ult": 1030,
      "ren": 1031,
      "izz": 1032,
      "team": 1033,
      "pizz": 1034,
      "ided": 1035,
      "seems": 1036,
      "horri": 1037,
      "ink": 1038,
      "asked": 1039,
      "didnt": 1040,
      "driving": 1041,
      "making": 1042,
      "ught": 1043,
      "lied": 1044,
      "import": 1045,
      "line": 1046,
      "sha": 1047,
      "10": 1048,
      "tru": 1049,
      "int": 1050,
      "realiz": 1051,
      "important": 1052,
      "pizza": 1053,
      "les": 1054,
      "boss": 1055,
      "fast": 1056,
      "spend": 1057,
      "coun": 1058,
      "lucky": 1059,
      "hurt": 1060,
      "ement": 1061,
      "ans": 1062,
      "ions": 1063,
      "study": 1064,
      "crazy": 1065,
      "ask": 1066,
      "cho": 1067,
      "book": 1068,
      "vers": 1069,
      "cour": 1070,
      "road": 1071,
      "doctor": 1072,
      "gets": 1073,
      "usually": 1074,
      "decided": 1075,
      "gone": 1076,
      "father": 1077,
      "dogs": 1078,
      "ds": 1079,
      "pping": 1080,
      "open": 1081,
      "itch": 1082,
      "uring": 1083,
      "gif": 1084,
      "health": 1085,
      "experi": 1086,
      "talking": 1087,
      "ire": 1088,
      "both": 1089,
      "heart": 1090,
      "seeing": 1091,
      "called": 1092,
      "yourself": 1093,
      "happens": 1094,
      "gradu": 1095,
      "reason": 1096,
      "ves": 1097,
      "brought": 1098,
      "exciting": 1099,
      "bring": 1100,
      "ba": 1101,
      "ary": 1102,
      "fix": 1103,
      "change": 1104,
      "differ": 1105,
      "sucks": 1106,
      "cur": 1107,
      "gy": 1108,
      "emp": 1109,
      "each": 1110,
      "urant": 1111,
      "del": 1112,
      "pain": 1113,
      "owing": 1114,
      "lic": 1115,
      "water": 1116,
      "hours": 1117,
      "aurant": 1118,
      "rain": 1119,
      "restaurant": 1120,
      "during": 1121,
      "sn": 1122,
      "als": 1123,
      "dro": 1124,
      "20": 1125,
      "fall": 1126,
      "free": 1127,
      "ered": 1128,
      "married": 1129,
      "fine": 1130,
      "cake": 1131,
      "gon": 1132,
      "agree": 1133,
      "vent": 1134,
      "horrible": 1135,
      "apart": 1136,
      "fell": 1137,
      "sat": 1138,
      "tough": 1139,
      "stop": 1140,
      "cam": 1141,
      "young": 1142,
      "eating": 1143,
      "exp": 1144,
      "illed": 1145,
      "manag": 1146,
      "lax": 1147,
      "hoping": 1148,
      "tonight": 1149,
      "awful": 1150,
      "gonna": 1151,
      "espec": 1152,
      "blem": 1153,
      "ap": 1154,
      "fre": 1155,
      "check": 1156,
      "fortun": 1157,
      "imag": 1158,
      "problem": 1159,
      "looked": 1160,
      "relax": 1161,
      "especially": 1162,
      "mas": 1163,
      "loved": 1164,
      "anymore": 1165,
      "sl": 1166,
      "gg": 1167,
      "stor": 1168,
      "surprise": 1169,
      "met": 1170,
      "park": 1171,
      "ither": 1172,
      "face": 1173,
      "iet": 1174,
      "ject": 1175,
      "guys": 1176,
      "paid": 1177,
      "worst": 1178,
      "char": 1179,
      "comple": 1180,
      "reci": 1181,
      "wouldn": 1182,
      "interest": 1183,
      "yard": 1184,
      "present": 1185,
      "ys": 1186,
      "starting": 1187,
      "gross": 1188,
      "poo": 1189,
      "str": 1190,
      "finish": 1191,
      "fortunate": 1192,
      "ness": 1193,
      "ped": 1194,
      "walk": 1195,
      "soc": 1196,
      "ird": 1197,
      "teach": 1198,
      "mat": 1199,
      "wonderful": 1200,
      "worth": 1201,
      "football": 1202,
      "ute": 1203,
      "mit": 1204,
      "pack": 1205,
      "anim": 1206,
      "dent": 1207,
      "gn": 1208,
      "ank": 1209,
      "moment": 1210,
      "meeting": 1211,
      "congratul": 1212,
      "news": 1213,
      "huge": 1214,
      "beach": 1215,
      "experience": 1216,
      "bur": 1217,
      "ding": 1218,
      "city": 1219,
      "land": 1220,
      "children": 1221,
      "imagine": 1222,
      "iness": 1223,
      "om": 1224,
      "different": 1225,
      "osed": 1226,
      "si": 1227,
      "coworker": 1228,
      "bas": 1229,
      "rid": 1230,
      "living": 1231,
      "mi": 1232,
      "roll": 1233,
      "train": 1234,
      "tot": 1235,
      "wed": 1236,
      "kept": 1237,
      "supposed": 1238,
      "sol": 1239,
      "season": 1240,
      "exact": 1241,
      "vide": 1242,
      "expecting": 1243,
      "vious": 1244,
      "sul": 1245,
      "relation": 1246,
      "law": 1247,
      "isn": 1248,
      "totally": 1249,
      "bill": 1250,
      "gen": 1251,
      "either": 1252,
      "near": 1253,
      "pupp": 1254,
      "mid": 1255,
      "moving": 1256,
      "ouble": 1257,
      "relationship": 1258,
      "later": 1259,
      "congratulations": 1260,
      "body": 1261,
      "lately": 1262,
      "lar": 1263,
      "mus": 1264,
      "sun": 1265,
      "watched": 1266,
      "tv": 1267,
      "cover": 1268,
      "childhood": 1269,
      "ordered": 1270,
      "pri": 1271,
      "fail": 1272,
      "grocer": 1273,
      "ture": 1274,
      "compl": 1275,
      "hot": 1276,
      "iday": 1277,
      "goes": 1278,
      "fic": 1279,
      "pull": 1280,
      "ition": 1281,
      "movi": 1282,
      "air": 1283,
      "storm": 1284,
      "dd": 1285,
      "lies": 1286,
      "final": 1287,
      "studied": 1288,
      "games": 1289,
      "ath": 1290,
      "stole": 1291,
      "movies": 1292,
      "pick": 1293,
      "pho": 1294,
      "grandmother": 1295,
      "ny": 1296,
      "feels": 1297,
      "caught": 1298,
      "takes": 1299,
      "wind": 1300,
      "apartment": 1301,
      "rece": 1302,
      "annoying": 1303,
      "special": 1304,
      "gift": 1305,
      "cess": 1306,
      "ower": 1307,
      "full": 1308,
      "appreci": 1309,
      "picture": 1310,
      "mess": 1311,
      "ier": 1312,
      "resul": 1313,
      "ants": 1314,
      "spent": 1315,
      "thre": 1316,
      "often": 1317,
      "neighbors": 1318,
      "fect": 1319,
      "cond": 1320,
      "walked": 1321,
      "chr": 1322,
      "ars": 1323,
      "ones": 1324,
      "stead": 1325,
      "exactly": 1326,
      "ford": 1327,
      "early": 1328,
      "cook": 1329,
      "remind": 1330,
      "hair": 1331,
      "ased": 1332,
      "tery": 1333,
      "pregn": 1334,
      "card": 1335,
      "top": 1336,
      "comes": 1337,
      "ia": 1338,
      "vel": 1339,
      "ider": 1340,
      "unfortunate": 1341,
      "video": 1342,
      "puppy": 1343,
      "ah": 1344,
      "younger": 1345,
      "weird": 1346,
      "box": 1347,
      "du": 1348,
      "god": 1349,
      "music": 1350,
      "hind": 1351,
      "wear": 1352,
      "cor": 1353,
      "instead": 1354,
      "small": 1355,
      "hang": 1356,
      "unk": 1357,
      "honest": 1358,
      "fut": 1359,
      "rent": 1360,
      "future": 1361,
      "complete": 1362,
      "shopping": 1363,
      "dream": 1364,
      "wer": 1365,
      "ying": 1366,
      "ross": 1367,
      "hold": 1368,
      "bum": 1369,
      "issu": 1370,
      "ustr": 1371,
      "ters": 1372,
      "stress": 1373,
      "threw": 1374,
      "ike": 1375,
      "nor": 1376,
      "lice": 1377,
      "fly": 1378,
      "fight": 1379,
      "worry": 1380,
      "three": 1381,
      "behind": 1382,
      "afford": 1383,
      "fair": 1384,
      "lunch": 1385,
      "street": 1386,
      "diffic": 1387,
      "ph": 1388,
      "stru": 1389,
      "partner": 1390,
      "easy": 1391,
      "photo": 1392,
      "dar": 1393,
      "weight": 1394,
      "ative": 1395,
      "others": 1396,
      "born": 1397,
      "worse": 1398,
      "christ": 1399,
      "christmas": 1400,
      "hew": 1401,
      "deser": 1402,
      "trouble": 1403,
      "plans": 1404,
      "busy": 1405,
      "entire": 1406,
      "lose": 1407,
      "lottery": 1408,
      "phew": 1409,
      "ense": 1410,
      "project": 1411,
      "bunch": 1412,
      "coo": 1413,
      "ju": 1414,
      "running": 1415,
      "sme": 1416,
      "war": 1417,
      "business": 1418,
      "works": 1419,
      "val": 1420,
      "mester": 1421,
      "doll": 1422,
      "semester": 1423,
      "truck": 1424,
      "frustr": 1425,
      "sal": 1426,
      "helped": 1427,
      "expect": 1428,
      "grade": 1429,
      "ticket": 1430,
      "difficult": 1431,
      "inv": 1432,
      "extra": 1433,
      "quick": 1434,
      "raise": 1435,
      "urch": 1436,
      "online": 1437,
      "uni": 1438,
      "window": 1439,
      "ride": 1440,
      "vice": 1441,
      "lebr": 1442,
      "country": 1443,
      "math": 1444,
      "luckily": 1445,
      "hal": 1446,
      "state": 1447,
      "nephew": 1448,
      "point": 1449,
      "paying": 1450,
      "aut": 1451,
      "name": 1452,
      "drink": 1453,
      "loy": 1454,
      "mail": 1455,
      "ital": 1456,
      "sitting": 1457,
      "broken": 1458,
      "ign": 1459,
      "wards": 1460,
      "certain": 1461,
      "acce": 1462,
      "safe": 1463,
      "kets": 1464,
      "serious": 1465,
      "gotten": 1466,
      "scre": 1467,
      "studying": 1468,
      "financ": 1469,
      "couldnt": 1470,
      "step": 1471,
      "key": 1472,
      "canc": 1473,
      "pregnant": 1474,
      "traf": 1475,
      "poss": 1476,
      "course": 1477,
      "half": 1478,
      "area": 1479,
      "police": 1480,
      "inside": 1481,
      "laugh": 1482,
      "utes": 1483,
      "cannot": 1484,
      "aking": 1485,
      "ces": 1486,
      "older": 1487,
      "dang": 1488,
      "pray": 1489,
      "girls": 1490,
      "minutes": 1491,
      "giving": 1492,
      "hi": 1493,
      "fee": 1494,
      "positive": 1495,
      "wedding": 1496,
      "traffic": 1497,
      "hes": 1498,
      "event": 1499,
      "pants": 1500,
      "ical": 1501,
      "concert": 1502,
      "planned": 1503,
      "results": 1504,
      "smell": 1505,
      "gar": 1506,
      "dead": 1507,
      "cheated": 1508,
      "chang": 1509,
      "allow": 1510,
      "expensive": 1511,
      "ount": 1512,
      "cous": 1513,
      "ney": 1514,
      "smart": 1515,
      "cousin": 1516,
      "iece": 1517,
      "beaut": 1518,
      "tive": 1519,
      "planning": 1520,
      "realized": 1521,
      "lad": 1522,
      "envious": 1523,
      "woke": 1524,
      "ised": 1525,
      "played": 1526,
      "hosp": 1527,
      "keeps": 1528,
      "turns": 1529,
      "single": 1530,
      "manager": 1531,
      "spon": 1532,
      "dark": 1533,
      "sim": 1534,
      "second": 1535,
      "cons": 1536,
      "forever": 1537,
      "accidentally": 1538,
      "respon": 1539,
      "applied": 1540,
      "lots": 1541,
      "aww": 1542,
      "pract": 1543,
      "cute": 1544,
      "umped": 1545,
      "ef": 1546,
      "lis": 1547,
      "sy": 1548,
      "ates": 1549,
      "form": 1550,
      "50": 1551,
      "sco": 1552,
      "graduated": 1553,
      "ced": 1554,
      "dle": 1555,
      "sw": 1556,
      "grocery": 1557,
      "loud": 1558,
      "oup": 1559,
      "gest": 1560,
      "gas": 1561,
      "cy": 1562,
      "appro": 1563,
      "fish": 1564,
      "iful": 1565,
      "ings": 1566,
      "possi": 1567,
      "ail": 1568,
      "swi": 1569,
      "coas": 1570,
      "completely": 1571,
      "bag": 1572,
      "cof": 1573,
      "tu": 1574,
      "catch": 1575,
      "type": 1576,
      "hun": 1577,
      "perfect": 1578,
      "interesting": 1579,
      "middle": 1580,
      "ited": 1581,
      "comm": 1582,
      "looks": 1583,
      "beautiful": 1584,
      "100": 1585,
      "neighborhood": 1586,
      "position": 1587,
      "iced": 1588,
      "irr": 1589,
      "plac": 1590,
      "coffee": 1591,
      "star": 1592,
      "wea": 1593,
      "funny": 1594,
      "congrats": 1595,
      "compet": 1596,
      "gs": 1597,
      "ined": 1598,
      "learn": 1599,
      "thes": 1600,
      "comput": 1601,
      "worker": 1602,
      "office": 1603,
      "local": 1604,
      "bud": 1605,
      "vol": 1606,
      "listen": 1607,
      "everyday": 1608,
      "tickets": 1609,
      "snake": 1610,
      "lier": 1611,
      "finished": 1612,
      "tex": 1613,
      "across": 1614,
      "pictures": 1615,
      "pot": 1616,
      "chance": 1617,
      "lived": 1618,
      "absol": 1619,
      "recei": 1620,
      "tired": 1621,
      "leaving": 1622,
      "learned": 1623,
      "cancer": 1624,
      "comfort": 1625,
      "clothes": 1626,
      "earlier": 1627,
      "cred": 1628,
      "absolute": 1629,
      "due": 1630,
      "ual": 1631,
      "figu": 1632,
      "build": 1633,
      "taken": 1634,
      "ically": 1635,
      "unfortunately": 1636,
      "15": 1637,
      "wallet": 1638,
      "led": 1639,
      "rect": 1640,
      "au": 1641,
      "eng": 1642,
      "diet": 1643,
      "count": 1644,
      "hospital": 1645,
      "bt": 1646,
      "inde": 1647,
      "hol": 1648,
      "trash": 1649,
      "surance": 1650,
      "kinda": 1651,
      "beat": 1652,
      "foll": 1653,
      "weather": 1654,
      "cand": 1655,
      "acking": 1656,
      "throw": 1657,
      "missed": 1658,
      "woman": 1659,
      "ni": 1660,
      "realize": 1661,
      "pooped": 1662,
      "computer": 1663,
      "grow": 1664,
      "credit": 1665,
      "along": 1666,
      "norm": 1667,
      "starts": 1668,
      "quiet": 1669,
      "dest": 1670,
      "dropped": 1671,
      "absolutely": 1672,
      "rand": 1673,
      "suc": 1674,
      "word": 1675,
      "poor": 1676,
      "ction": 1677,
      "gym": 1678,
      "matter": 1679,
      "roller": 1680,
      "peace": 1681,
      "lives": 1682,
      "healthy": 1683,
      "borrow": 1684,
      "cats": 1685,
      "treat": 1686,
      "30": 1687,
      "roo": 1688,
      "arch": 1689,
      "elled": 1690,
      "rough": 1691,
      "unex": 1692,
      "insurance": 1693,
      "fire": 1694,
      "pected": 1695,
      "monday": 1696,
      "throom": 1697,
      "crash": 1698,
      "bathroom": 1699,
      "pat": 1700,
      "ics": 1701,
      "scr": 1702,
      "using": 1703,
      "liked": 1704,
      "save": 1705,
      "short": 1706,
      "animals": 1707,
      "received": 1708,
      "net": 1709,
      "ote": 1710,
      "forget": 1711,
      "needs": 1712,
      "smash": 1713,
      "umber": 1714,
      "telling": 1715,
      "frustrating": 1716,
      "unexpected": 1717,
      "cup": 1718,
      "unt": 1719,
      "knows": 1720,
      "quickly": 1721,
      "clu": 1722,
      "io": 1723,
      "ond": 1724,
      "ado": 1725,
      "friday": 1726,
      "case": 1727,
      "ord": 1728,
      "secre": 1729,
      "bills": 1730,
      "irrit": 1731,
      "roomm": 1732,
      "lady": 1733,
      "ling": 1734,
      "sub": 1735,
      "anyway": 1736,
      "fan": 1737,
      "cru": 1738,
      "grandma": 1739,
      "outh": 1740,
      "sever": 1741,
      "brand": 1742,
      "iety": 1743,
      "meal": 1744,
      "cost": 1745,
      "growing": 1746,
      "appreciate": 1747,
      "sort": 1748,
      "yep": 1749,
      "ground": 1750,
      "saving": 1751,
      "hey": 1752,
      "assing": 1753,
      "disney": 1754,
      "offered": 1755,
      "impress": 1756,
      "pair": 1757,
      "classes": 1758,
      "av": 1759,
      "seemed": 1760,
      "bow": 1761,
      "cli": 1762,
      "wants": 1763,
      "coworkers": 1764,
      "arri": 1765,
      "parking": 1766,
      "support": 1767,
      "iv": 1768,
      "power": 1769,
      "shouldn": 1770,
      "failed": 1771,
      "pool": 1772,
      "accompl": 1773,
      "stopped": 1774,
      "slow": 1775,
      "aunt": 1776,
      "dam": 1777,
      "stuck": 1778,
      "ize": 1779,
      "men": 1780,
      "asking": 1781,
      "search": 1782,
      "crush": 1783,
      "teacher": 1784,
      "bs": 1785,
      "missing": 1786,
      "expected": 1787,
      "scratch": 1788,
      "accomplish": 1789,
      "fli": 1790,
      "aren": 1791,
      "surger": 1792,
      "helping": 1793,
      "deli": 1794,
      "tast": 1795,
      "group": 1796,
      "quest": 1797,
      "ian": 1798,
      "board": 1799,
      "gener": 1800,
      "den": 1801,
      "animal": 1802,
      "pulled": 1803,
      "kitch": 1804,
      "cleaning": 1805,
      "dress": 1806,
      "celebr": 1807,
      "kitchen": 1808,
      "bank": 1809,
      "ming": 1810,
      "ane": 1811,
      "saying": 1812,
      "range": 1813,
      "training": 1814,
      "issues": 1815,
      "cash": 1816,
      "gard": 1817,
      "oc": 1818,
      "ention": 1819,
      "stup": 1820,
      "ese": 1821,
      "ending": 1822,
      "parent": 1823,
      "rude": 1824,
      "steal": 1825,
      "kill": 1826,
      "edu": 1827,
      "rol": 1828,
      "paper": 1829,
      "rug": 1830,
      "relaxing": 1831,
      "social": 1832,
      "random": 1833,
      "cted": 1834,
      "number": 1835,
      "inten": 1836,
      "irt": 1837,
      "black": 1838,
      "travel": 1839,
      "consider": 1840,
      "possible": 1841,
      "comfortable": 1842,
      "bly": 1843,
      "flo": 1844,
      "hon": 1845,
      "kit": 1846,
      "sell": 1847,
      "losing": 1848,
      "offer": 1849,
      "given": 1850,
      "camping": 1851,
      "invited": 1852,
      "fle": 1853,
      "gan": 1854,
      "tou": 1855,
      "scare": 1856,
      "indeed": 1857,
      "stupid": 1858,
      "become": 1859,
      "noticed": 1860,
      "stayed": 1861,
      "fying": 1862,
      "tire": 1863,
      "thankfully": 1864,
      "phys": 1865,
      "main": 1866,
      "die": 1867,
      "talked": 1868,
      "problems": 1869,
      "surgery": 1870,
      "18": 1871,
      "awhile": 1872,
      "fit": 1873,
      "ities": 1874,
      "aged": 1875,
      "cheating": 1876,
      "trusted": 1877,
      "ient": 1878,
      "shot": 1879,
      "cream": 1880,
      "dollars": 1881,
      "add": 1882,
      "degre": 1883,
      "ility": 1884,
      "wanting": 1885,
      "cas": 1886,
      "cking": 1887,
      "fer": 1888,
      "kno": 1889,
      "chick": 1890,
      "changed": 1891,
      "amount": 1892,
      "noise": 1893,
      "helps": 1894,
      "cancel": 1895,
      "song": 1896,
      "showed": 1897,
      "fing": 1898,
      "lap": 1899,
      "control": 1900,
      "complain": 1901,
      "reminded": 1902,
      "photos": 1903,
      "success": 1904,
      "squ": 1905,
      "cars": 1906,
      "shoes": 1907,
      "cooking": 1908,
      "ins": 1909,
      "return": 1910,
      "whenever": 1911,
      "trump": 1912,
      "touch": 1913,
      "death": 1914,
      "flor": 1915,
      "cu": 1916,
      "opp": 1917,
      "ida": 1918,
      "knowing": 1919,
      "service": 1920,
      "honestly": 1921,
      "deserve": 1922,
      "ors": 1923,
      "church": 1924,
      "embarrassing": 1925,
      "florida": 1926,
      "bat": 1927,
      "item": 1928,
      "sport": 1929,
      "ili": 1930,
      "lying": 1931,
      "sudd": 1932,
      "selves": 1933,
      "roommate": 1934,
      "sudden": 1935,
      "bon": 1936,
      "piece": 1937,
      "nope": 1938,
      "extre": 1939,
      "drunk": 1940,
      "sisters": 1941,
      "eventually": 1942,
      "ged": 1943,
      "ost": 1944,
      "spee": 1945,
      "chocol": 1946,
      "accep": 1947,
      "extreme": 1948,
      "quit": 1949,
      "shows": 1950,
      "ele": 1951,
      "icul": 1952,
      "switch": 1953,
      "holiday": 1954,
      "cri": 1955,
      "rob": 1956,
      "longer": 1957,
      "saved": 1958,
      "ches": 1959,
      "enjoyed": 1960,
      "bother": 1961,
      "resc": 1962,
      "antly": 1963,
      "everywhere": 1964,
      "speak": 1965,
      "sunday": 1966,
      "floor": 1967,
      "wood": 1968,
      "spilled": 1969,
      "qual": 1970,
      "cheat": 1971,
      "brothers": 1972,
      "blood": 1973,
      "whe": 1974,
      "daughters": 1975,
      "exams": 1976,
      "large": 1977,
      "ile": 1978,
      "ob": 1979,
      "returned": 1980,
      "goodness": 1981,
      "driver": 1982,
      "degree": 1983,
      "nast": 1984,
      "arm": 1985,
      "decis": 1986,
      "buying": 1987,
      "soccer": 1988,
      "base": 1989,
      "ze": 1990,
      "incre": 1991,
      "ghost": 1992,
      "loan": 1993,
      "donal": 1994,
      "supplies": 1995,
      "speed": 1996,
      "responsi": 1997,
      "sign": 1998,
      "oted": 1999,
      "arely": 2000,
      "mistake": 2001,
      "pub": 2002,
      "stepped": 2003,
      "figure": 2004,
      "een": 2005,
      "depre": 2006,
      "nerve": 2007,
      "maj": 2008,
      "promised": 2009,
      "presentation": 2010,
      "cruise": 2011,
      "impressive": 2012,
      "cha": 2013,
      "ks": 2014,
      "vest": 2015,
      "fear": 2016,
      "secret": 2017,
      "pur": 2018,
      "pres": 2019,
      "unity": 2020,
      "attention": 2021,
      "prof": 2022,
      "fixed": 2023,
      "satis": 2024,
      "riding": 2025,
      "bike": 2026,
      "eag": 2027,
      "ired": 2028,
      "pis": 2029,
      "shop": 2030,
      "skill": 2031,
      "choice": 2032,
      "graduate": 2033,
      "buddy": 2034,
      "candy": 2035,
      "alright": 2036,
      "stink": 2037,
      "strange": 2038,
      "leg": 2039,
      "pleased": 2040,
      "jobs": 2041,
      "financial": 2042,
      "accepted": 2043,
      "major": 2044,
      "easier": 2045,
      "shame": 2046,
      "scream": 2047,
      "speech": 2048,
      "pan": 2049,
      "ring": 2050,
      "sand": 2051,
      "happening": 2052,
      "plane": 2053,
      "hurri": 2054,
      "pets": 2055,
      "chocolate": 2056,
      "flight": 2057,
      "tour": 2058,
      "roy": 2059,
      "cry": 2060,
      "spending": 2061,
      "dating": 2062,
      "ied": 2063,
      "nam": 2064,
      "sense": 2065,
      "log": 2066,
      "disgusting": 2067,
      "fresh": 2068,
      "ninten": 2069,
      "nintendo": 2070,
      "ol": 2071,
      "oil": 2072,
      "relie": 2073,
      "lawn": 2074,
      "winning": 2075,
      "miles": 2076,
      "hurrican": 2077,
      "wasnt": 2078,
      "teen": 2079,
      "vomit": 2080,
      "coaster": 2081,
      "sity": 2082,
      "200": 2083,
      "blu": 2084,
      "lead": 2085,
      "baseball": 2086,
      "putting": 2087,
      "truly": 2088,
      "package": 2089,
      "covered": 2090,
      "nasty": 2091,
      "ons": 2092,
      "rather": 2093,
      "employ": 2094,
      "tripped": 2095,
      "anxiety": 2096,
      "12": 2097,
      "killed": 2098,
      "por": 2099,
      "ments": 2100,
      "careful": 2101,
      "univer": 2102,
      "ded": 2103,
      "contest": 2104,
      "stressful": 2105,
      "public": 2106,
      "eyes": 2107,
      "ience": 2108,
      "list": 2109,
      "nur": 2110,
      "push": 2111,
      "strong": 2112,
      "extremely": 2113,
      "bal": 2114,
      "cried": 2115,
      "himself": 2116,
      "reading": 2117,
      "ized": 2118,
      "attack": 2119,
      "current": 2120,
      "however": 2121,
      "ific": 2122,
      "dist": 2123,
      "turning": 2124,
      "clear": 2125,
      "bonus": 2126,
      "blue": 2127,
      "ahead": 2128,
      "table": 2129,
      "ww": 2130,
      "wre": 2131,
      "chicken": 2132,
      "cell": 2133,
      "hh": 2134,
      "sen": 2135,
      "sli": 2136,
      "ember": 2137,
      "loss": 2138,
      "notice": 2139,
      "ately": 2140,
      "story": 2141,
      "means": 2142,
      "spect": 2143,
      "learning": 2144,
      "strang": 2145,
      "competition": 2146,
      "bowl": 2147,
      "ben": 2148,
      "bra": 2149,
      "cent": 2150,
      "ggl": 2151,
      "hum": 2152,
      "stem": 2153,
      "ached": 2154,
      "suppose": 2155,
      "cleaned": 2156,
      "minute": 2157,
      "delic": 2158,
      "flying": 2159,
      "score": 2160,
      "garden": 2161,
      "fact": 2162,
      "ries": 2163,
      "words": 2164,
      "ilar": 2165,
      "focus": 2166,
      "cro": 2167,
      "lay": 2168,
      "winter": 2169,
      "erc": 2170,
      "adv": 2171,
      "hallow": 2172,
      "mc": 2173,
      "stra": 2174,
      "loves": 2175,
      "proper": 2176,
      "ruined": 2177,
      "staying": 2178,
      "empty": 2179,
      "system": 2180,
      "follow": 2181,
      "pissed": 2182,
      "four": 2183,
      "uts": 2184,
      "hahaha": 2185,
      "ption": 2186,
      "destroy": 2187,
      "several": 2188,
      "mil": 2189,
      "fault": 2190,
      "spider": 2191,
      "talent": 2192,
      "issue": 2193,
      "loyal": 2194,
      "halloween": 2195,
      "40": 2196,
      "gun": 2197,
      "research": 2198,
      "known": 2199,
      "aper": 2200,
      "thri": 2201,
      "riage": 2202,
      "bul": 2203,
      "handle": 2204,
      "anni": 2205,
      "alive": 2206,
      "badly": 2207,
      "contin": 2208,
      "dru": 2209,
      "torn": 2210,
      "grandfather": 2211,
      "share": 2212,
      "certainly": 2213,
      "university": 2214,
      "ev": 2215,
      "fil": 2216,
      "filled": 2217,
      "rush": 2218,
      "tree": 2219,
      "fund": 2220,
      "bummer": 2221,
      "afterwards": 2222,
      "lame": 2223,
      "cheap": 2224,
      "sleeping": 2225,
      "hungry": 2226,
      "bing": 2227,
      "len": 2228,
      "ref": 2229,
      "emon": 2230,
      "stair": 2231,
      "gold": 2232,
      "grew": 2233,
      "bros": 2234,
      "terrifying": 2235,
      "picked": 2236,
      "stinks": 2237,
      "pes": 2238,
      "hadn": 2239,
      "spot": 2240,
      "direct": 2241,
      "cheese": 2242,
      "delicious": 2243,
      "avo": 2244,
      "low": 2245,
      "lord": 2246,
      "gress": 2247,
      "human": 2248,
      "opened": 2249,
      "items": 2250,
      "annivers": 2251,
      "purch": 2252,
      "towards": 2253,
      "ale": 2254,
      "breaking": 2255,
      "barely": 2256,
      "asleep": 2257,
      "wash": 2258,
      "idence": 2259,
      "feet": 2260,
      "poop": 2261,
      "places": 2262,
      "normal": 2263,
      "13": 2264,
      "apo": 2265,
      "jer": 2266,
      "ering": 2267,
      "argu": 2268,
      "beer": 2269,
      "somewhere": 2270,
      "gram": 2271,
      "nerves": 2272,
      "student": 2273,
      "internet": 2274,
      "babies": 2275,
      "mming": 2276,
      "amazed": 2277,
      "ancy": 2278,
      "building": 2279,
      "det": 2280,
      "wel": 2281,
      "ises": 2282,
      "plant": 2283,
      "homeless": 2284,
      "glass": 2285,
      "against": 2286,
      "graduation": 2287,
      "crashed": 2288,
      "hurricane": 2289,
      "anniversary": 2290,
      "fart": 2291,
      "acting": 2292,
      "fully": 2293,
      "ession": 2294,
      "packed": 2295,
      "mall": 2296,
      "mill": 2297,
      "ining": 2298,
      "emer": 2299,
      "stick": 2300,
      "deep": 2301,
      "anywhere": 2302,
      "finding": 2303,
      "flow": 2304,
      "facebook": 2305,
      "weren": 2306,
      "satisfied": 2307,
      "mcdonal": 2308,
      "meant": 2309,
      "cold": 2310,
      "note": 2311,
      "concer": 2312,
      "post": 2313,
      "hasn": 2314,
      "wont": 2315,
      "irritated": 2316,
      "stom": 2317,
      "fur": 2318,
      "mostly": 2319,
      "basement": 2320,
      "cookies": 2321,
      "accept": 2322,
      "inst": 2323,
      "pee": 2324,
      "whatever": 2325,
      "satur": 2326,
      "groceries": 2327,
      "jumped": 2328,
      "ses": 2329,
      "acted": 2330,
      "feed": 2331,
      "ends": 2332,
      "shel": 2333,
      "themselves": 2334,
      "perfor": 2335,
      "twi": 2336,
      "ween": 2337,
      "grown": 2338,
      "between": 2339,
      "feelings": 2340,
      "visiting": 2341,
      "swimming": 2342,
      "stairs": 2343,
      "boo": 2344,
      "horr": 2345,
      "wake": 2346,
      "ator": 2347,
      "album": 2348,
      "vet": 2349,
      "fired": 2350,
      "appoint": 2351,
      "books": 2352,
      "ilet": 2353,
      "jump": 2354,
      "nat": 2355,
      "pound": 2356,
      "shar": 2357,
      "invest": 2358,
      "toilet": 2359,
      "beha": 2360,
      "sty": 2361,
      "carpet": 2362,
      "shower": 2363,
      "memory": 2364,
      "mot": 2365,
      "report": 2366,
      "ages": 2367,
      "beg": 2368,
      "shirt": 2369,
      "couch": 2370,
      "decent": 2371,
      "stressed": 2372,
      "dou": 2373,
      "inking": 2374,
      "eld": 2375,
      "lock": 2376,
      "achie": 2377,
      "checked": 2378,
      "incredi": 2379,
      "spr": 2380,
      "haun": 2381,
      "emotional": 2382,
      "hell": 2383,
      "debt": 2384,
      "says": 2385,
      "grades": 2386,
      "creep": 2387,
      "wearing": 2388,
      "fingers": 2389,
      "laptop": 2390,
      "emergen": 2391,
      "send": 2392,
      "smo": 2393,
      "toys": 2394,
      "sold": 2395,
      "gosh": 2396,
      "gives": 2397,
      "answer": 2398,
      "ms": 2399,
      "organ": 2400,
      "impro": 2401,
      "marriage": 2402,
      "managed": 2403,
      "decision": 2404,
      "dum": 2405,
      "rock": 2406,
      "herself": 2407,
      "color": 2408,
      "promoted": 2409,
      "sky": 2410,
      "burger": 2411,
      "omg": 2412,
      "stomach": 2413,
      "ats": 2414,
      "ague": 2415,
      "ices": 2416,
      "plain": 2417,
      "flood": 2418,
      "struggl": 2419,
      "fant": 2420,
      "mouth": 2421,
      "itu": 2422,
      "uncle": 2423,
      "lazy": 2424,
      "hearing": 2425,
      "career": 2426,
      "boys": 2427,
      "opport": 2428,
      "appointment": 2429,
      "19": 2430,
      "fat": 2431,
      "amer": 2432,
      "bummed": 2433,
      "eye": 2434,
      "rac": 2435,
      "ener": 2436,
      "respect": 2437,
      "bey": 2438,
      "pper": 2439,
      "process": 2440,
      "writ": 2441,
      "drove": 2442,
      "haunted": 2443,
      "locked": 2444,
      "exerc": 2445,
      "pride": 2446,
      "pays": 2447,
      "drag": 2448,
      "stranger": 2449,
      "dents": 2450,
      "race": 2451,
      "uh": 2452,
      "asing": 2453,
      "station": 2454,
      "timis": 2455,
      "loye": 2456,
      "fiance": 2457,
      "prepare": 2458,
      "tax": 2459,
      "optimis": 2460,
      "employe": 2461,
      "seriously": 2462,
      "danger": 2463,
      "yell": 2464,
      "yelled": 2465,
      "adult": 2466,
      "program": 2467,
      "medical": 2468,
      "doesnt": 2469,
      "distance": 2470,
      "blame": 2471,
      "hy": 2472,
      "mp": 2473,
      "od": 2474,
      "row": 2475,
      "shouldnt": 2476,
      "moments": 2477,
      "dollar": 2478,
      "swim": 2479,
      "coasters": 2480,
      "apolog": 2481,
      "twice": 2482,
      "motiv": 2483,
      "aked": 2484,
      "flies": 2485,
      "lon": 2486,
      "invol": 2487,
      "ising": 2488,
      "irty": 2489,
      "logy": 2490,
      "workers": 2491,
      "scho": 2492,
      "pok": 2493,
      "drinking": 2494,
      "lights": 2495,
      "license": 2496,
      "effort": 2497,
      "yo": 2498,
      "stat": 2499,
      "ides": 2500,
      "upcoming": 2501,
      "astic": 2502,
      "gifts": 2503,
      "sandwi": 2504,
      "cation": 2505,
      "kward": 2506,
      "advice": 2507,
      "likes": 2508,
      "const": 2509,
      "stolen": 2510,
      "drivers": 2511,
      "awkward": 2512,
      "charge": 2513,
      "six": 2514,
      "lebron": 2515,
      "egg": 2516,
      "kick": 2517,
      "apped": 2518,
      "pop": 2519,
      "dentist": 2520,
      "fishing": 2521,
      "optimistic": 2522,
      "16": 2523,
      "ior": 2524,
      "rot": 2525,
      "lif": 2526,
      "pleas": 2527,
      "tech": 2528,
      "schedu": 2529,
      "crow": 2530,
      "crying": 2531,
      "camer": 2532,
      "ikes": 2533,
      "honor": 2534,
      "eagles": 2535,
      "avoid": 2536,
      "begin": 2537,
      "bot": 2538,
      "mate": 2539,
      "replace": 2540,
      "track": 2541,
      "exce": 2542,
      "divor": 2543,
      "liter": 2544,
      "contact": 2545,
      "calling": 2546,
      "000": 2547,
      "ances": 2548,
      "hands": 2549,
      "larship": 2550,
      "hanging": 2551,
      "25": 2552,
      "cul": 2553,
      "nic": 2554,
      "niece": 2555,
      "regre": 2556,
      "although": 2557,
      "convers": 2558,
      "field": 2559,
      "medi": 2560,
      "keeping": 2561,
      "closed": 2562,
      "correct": 2563,
      "cooked": 2564,
      "laughing": 2565,
      "wreck": 2566,
      "doubt": 2567,
      "emergency": 2568,
      "scholarship": 2569,
      "messed": 2570,
      "agno": 2571,
      "ley": 2572,
      "level": 2573,
      "idge": 2574,
      "chat": 2575,
      "keys": 2576,
      "diving": 2577,
      "particul": 2578,
      "taught": 2579,
      "personal": 2580,
      "drop": 2581,
      "skills": 2582,
      "saturday": 2583,
      "americ": 2584,
      "fed": 2585,
      "mag": 2586,
      "mower": 2587,
      "wise": 2588,
      "ya": 2589,
      "insp": 2590,
      "mistakes": 2591,
      "confidence": 2592,
      "relative": 2593,
      "passing": 2594,
      "suddenly": 2595,
      "flowers": 2596,
      "particular": 2597,
      "award": 2598,
      "fac": 2599,
      "vy": 2600,
      "review": 2601,
      "became": 2602,
      "harder": 2603,
      "diagno": 2604,
      "attend": 2605,
      "attitu": 2606,
      "court": 2607,
      "patient": 2608,
      "performan": 2609,
      "south": 2610,
      "xic": 2611,
      "york": 2612,
      "iders": 2613,
      "tified": 2614,
      "explain": 2615,
      "prepar": 2616,
      "conne": 2617,
      "students": 2618,
      "reminds": 2619,
      "approved": 2620,
      "celebrate": 2621,
      "horror": 2622,
      "style": 2623,
      "14": 2624,
      "lake": 2625,
      "site": 2626,
      "biggest": 2627,
      "nail": 2628,
      "calm": 2629,
      "tournam": 2630,
      "tornado": 2631,
      "flu": 2632,
      "kis": 2633,
      "ris": 2634,
      "sil": 2635,
      "oun": 2636,
      "roof": 2637,
      "within": 2638,
      "boring": 2639,
      "shoot": 2640,
      "bird": 2641,
      "closer": 2642,
      "following": 2643,
      "normally": 2644,
      "arrived": 2645,
      "behavi": 2646,
      "cart": 2647,
      "spray": 2648,
      "engl": 2649,
      "res": 2650,
      "repair": 2651,
      "therap": 2652,
      "gotta": 2653,
      "prote": 2654,
      "dep": 2655,
      "medic": 2656,
      "market": 2657,
      "phones": 2658,
      "headed": 2659,
      "charged": 2660,
      "rescue": 2661,
      "destroyed": 2662,
      "five": 2663,
      "os": 2664,
      "tin": 2665,
      "plus": 2666,
      "spouse": 2667,
      "propo": 2668,
      "moms": 2669,
      "tory": 2670,
      "grossed": 2671,
      "dumb": 2672,
      "literally": 2673,
      "hide": 2674,
      "reward": 2675,
      "neg": 2676,
      "load": 2677,
      "action": 2678,
      "brings": 2679,
      "cancelled": 2680,
      "deliver": 2681,
      "involved": 2682,
      "ii": 2683,
      "mer": 2684,
      "pit": 2685,
      "pig": 2686,
      "inform": 2687,
      "ened": 2688,
      "ann": 2689,
      "ripped": 2690,
      "icing": 2691,
      "hoc": 2692,
      "produ": 2693,
      "suppor": 2694,
      "dude": 2695,
      "steps": 2696,
      "similar": 2697,
      "kitten": 2698,
      "shelter": 2699,
      "beyond": 2700,
      "schedule": 2701,
      "iest": 2702,
      "uck": 2703,
      "etc": 2704,
      "account": 2705,
      "ified": 2706,
      "shock": 2707,
      "robbed": 2708,
      "thrill": 2709,
      "cross": 2710,
      "ging": 2711,
      "ler": 2712,
      "mount": 2713,
      "yup": 2714,
      "ines": 2715,
      "mexic": 2716,
      "alot": 2717,
      "flat": 2718,
      "breakfast": 2719,
      "experien": 2720,
      "interested": 2721,
      "dangerous": 2722,
      "hockey": 2723,
      "lab": 2724,
      "none": 2725,
      "reun": 2726,
      "backyard": 2727,
      "letting": 2728,
      "fridge": 2729,
      "mile": 2730,
      "garage": 2731,
      "million": 2732,
      "11": 2733,
      "yikes": 2734,
      "mes": 2735,
      "ties": 2736,
      "immedi": 2737,
      "aller": 2738,
      "whats": 2739,
      "visited": 2740,
      "charac": 2741,
      "price": 2742,
      "practice": 2743,
      "performance": 2744,
      "dem": 2745,
      "gain": 2746,
      "ram": 2747,
      "ham": 2748,
      "goal": 2749,
      "till": 2750,
      "trans": 2751,
      "caused": 2752,
      "spiders": 2753,
      "waited": 2754,
      "camp": 2755,
      "freaked": 2756,
      "sports": 2757,
      "speeding": 2758,
      "depressed": 2759,
      "spring": 2760,
      "sandwich": 2761,
      "90": 2762,
      "blast": 2763,
      "bby": 2764,
      "bright": 2765,
      "hic": 2766,
      "une": 2767,
      "white": 2768,
      "abo": 2769,
      "somehow": 2770,
      "fright": 2771,
      "commit": 2772,
      "helpful": 2773,
      "desk": 2774,
      "snack": 2775,
      "gging": 2776,
      "tube": 2777,
      "opportunity": 2778,
      "constantly": 2779,
      "dirty": 2780,
      "ssing": 2781,
      "yours": 2782,
      "tee": 2783,
      "boat": 2784,
      "tail": 2785,
      "craw": 2786,
      "gged": 2787,
      "receive": 2788,
      "jerk": 2789,
      "attitude": 2790,
      "mountain": 2791,
      "rat": 2792,
      "grass": 2793,
      "wouldnt": 2794,
      "igned": 2795,
      "disappointing": 2796,
      "nap": 2797,
      "doctors": 2798,
      "profession": 2799,
      "pokemon": 2800,
      "mood": 2801,
      "supris": 2802,
      "cop": 2803,
      "ilt": 2804,
      "oldest": 2805,
      "offic": 2806,
      "stoked": 2807,
      "bigger": 2808,
      "simple": 2809,
      "delivery": 2810,
      "occas": 2811,
      "randomly": 2812,
      "milk": 2813,
      "regret": 2814,
      "ctive": 2815,
      "lbs": 2816,
      "match": 2817,
      "instru": 2818,
      "regu": 2819,
      "relate": 2820,
      "ational": 2821,
      "amus": 2822,
      "carry": 2823,
      "ilities": 2824,
      "space": 2825,
      "diaper": 2826,
      "bugs": 2827,
      "ski": 2828,
      "mix": 2829,
      "jud": 2830,
      "engine": 2831,
      "question": 2832,
      "addic": 2833,
      "regular": 2834,
      "dra": 2835,
      "gam": 2836,
      "aches": 2837,
      "ability": 2838,
      "nose": 2839,
      "cards": 2840,
      "tooth": 2841,
      "nights": 2842,
      "grandparents": 2843,
      "stealing": 2844,
      "straight": 2845,
      "mcdonalds": 2846,
      "tournament": 2847,
      "information": 2848,
      "somebody": 2849,
      "appar": 2850,
      "hardly": 2851,
      "paycheck": 2852,
      "mortified": 2853,
      "basically": 2854,
      "subject": 2855,
      "flew": 2856,
      "immediately": 2857,
      "hid": 2858,
      "lane": 2859,
      "spl": 2860,
      "third": 2861,
      "refund": 2862,
      "waste": 2863,
      "els": 2864,
      "ade": 2865,
      "unte": 2866,
      "unless": 2867,
      "progress": 2868,
      "letter": 2869,
      "closet": 2870,
      "raining": 2871,
      "deserved": 2872,
      "laughed": 2873,
      "volunte": 2874,
      "knocked": 2875,
      "teenag": 2876,
      "tiny": 2877,
      "amusement": 2878,
      "nit": 2879,
      "ore": 2880,
      "onto": 2881,
      "toe": 2882,
      "oul": 2883,
      "youtube": 2884,
      "neck": 2885,
      "active": 2886,
      "sometime": 2887,
      "motor": 2888,
      "owner": 2889,
      "visor": 2890,
      "skin": 2891,
      "easily": 2892,
      "storms": 2893,
      "smelled": 2894,
      "damage": 2895,
      "slipped": 2896,
      "crossed": 2897,
      "apparently": 2898,
      "cir": 2899,
      "vid": 2900,
      "uses": 2901,
      "assu": 2902,
      "agre": 2903,
      "abused": 2904,
      "noon": 2905,
      "please": 2906,
      "dish": 2907,
      "science": 2908,
      "throwing": 2909,
      "heartbroken": 2910,
      "basket": 2911,
      "screen": 2912,
      "considerate": 2913,
      "successful": 2914,
      "woods": 2915,
      "vomited": 2916,
      "conversation": 2917,
      "eu": 2918,
      "ky": 2919,
      "ato": 2920,
      "inju": 2921,
      "cher": 2922,
      "amed": 2923,
      "applying": 2924,
      "parts": 2925,
      "mission": 2926,
      "remembered": 2927,
      "warm": 2928,
      "practicing": 2929,
      "listening": 2930,
      "relief": 2931,
      "pounds": 2932,
      "bun": 2933,
      "ease": 2934,
      "gate": 2935,
      "kers": 2936,
      "pumped": 2937,
      "zz": 2938,
      "adop": 2939,
      "lig": 2940,
      "secur": 2941,
      "suit": 2942,
      "noises": 2943,
      "loose": 2944,
      "tests": 2945,
      "bling": 2946,
      "babysit": 2947,
      "picking": 2948,
      "result": 2949,
      "taste": 2950,
      "struggling": 2951,
      "bi": 2952,
      "ditch": 2953,
      "gri": 2954,
      "lun": 2955,
      "mac": 2956,
      "tho": 2957,
      "todd": 2958,
      "reco": 2959,
      "nobody": 2960,
      "ished": 2961,
      "igno": 2962,
      "confr": 2963,
      "women": 2964,
      "hitting": 2965,
      "thanksgiving": 2966,
      "holding": 2967,
      "frustrated": 2968,
      "accomplished": 2969,
      "insane": 2970,
      "senior": 2971,
      "500": 2972,
      "kic": 2973,
      "mb": 2974,
      "mach": 2975,
      "shad": 2976,
      "task": 2977,
      "rele": 2978,
      "meat": 2979,
      "alarm": 2980,
      "soft": 2981,
      "ays": 2982,
      "peed": 2983,
      "ext": 2984,
      "que": 2985,
      "drives": 2986,
      "burned": 2987,
      "sale": 2988,
      "figured": 2989,
      "peaceful": 2990,
      "responsible": 2991,
      "except": 2992,
      "divorce": 2993,
      "behavior": 2994,
      "odd": 2995,
      "pun": 2996,
      "ued": 2997,
      "wall": 2998,
      "asy": 2999,
      "stage": 3000,
      "height": 3001,
      "admit": 3002,
      "goals": 3003,
      "tip": 3004,
      "evening": 3005,
      "stub": 3006,
      "vacu": 3007,
      "minis": 3008,
      "desp": 3009,
      "giant": 3010,
      "calcul": 3011,
      "curr": 3012,
      "placed": 3013,
      "whether": 3014,
      "dance": 3015,
      "lf": 3016,
      "mart": 3017,
      "sle": 3018,
      "size": 3019,
      "vin": 3020,
      "prefer": 3021,
      "tool": 3022,
      "bucks": 3023,
      "brown": 3024,
      "supervisor": 3025,
      "wracking": 3026,
      "enjoying": 3027,
      "specific": 3028,
      "appreciated": 3029,
      "invite": 3030,
      "text": 3031,
      "cashier": 3032,
      "physics": 3033,
      "responsib": 3034,
      "concerned": 3035,
      "fantastic": 3036,
      "double": 3037,
      "total": 3038,
      "email": 3039,
      "havent": 3040,
      "vehic": 3041,
      "heat": 3042,
      "tran": 3043,
      "shut": 3044,
      "spoil": 3045,
      "afternoon": 3046,
      "parked": 3047,
      "drank": 3048,
      "ggle": 3049,
      "landlord": 3050,
      "crushed": 3051,
      "therapy": 3052,
      "teeth": 3053,
      "cel": 3054,
      "attr": 3055,
      "ouch": 3056,
      "haps": 3057,
      "held": 3058,
      "heav": 3059,
      "perhaps": 3060,
      "owned": 3061,
      "mental": 3062,
      "corner": 3063,
      "dreams": 3064,
      "drinks": 3065,
      "awww": 3066,
      "farted": 3067,
      "above": 3068,
      "fill": 3069,
      "fence": 3070,
      "nuts": 3071,
      "rad": 3072,
      "signed": 3073,
      "whel": 3074,
      "retire": 3075,
      "rope": 3076,
      "nowhere": 3077,
      "dishes": 3078,
      "everytime": 3079,
      "poin": 3080,
      "earth": 3081,
      "eaten": 3082,
      "courage": 3083,
      "hotel": 3084,
      "engaged": 3085,
      "security": 3086,
      "bri": 3087,
      "cket": 3088,
      "hated": 3089,
      "hawa": 3090,
      "sooo": 3091,
      "chall": 3092,
      "miser": 3093,
      "youngest": 3094,
      "series": 3095,
      "nearly": 3096,
      "holidays": 3097,
      "purse": 3098,
      "preparing": 3099,
      "despite": 3100,
      "cable": 3101,
      "gers": 3102,
      "mater": 3103,
      "ana": 3104,
      "ress": 3105,
      "wasted": 3106,
      "league": 3107,
      "seat": 3108,
      "media": 3109,
      "lesson": 3110,
      "interviews": 3111,
      "intro": 3112,
      "cycle": 3113,
      "texas": 3114,
      "drugs": 3115,
      "purchased": 3116,
      "energy": 3117,
      "basketball": 3118,
      "currently": 3119,
      "bage": 3120,
      "round": 3121,
      "ening": 3122,
      "bel": 3123,
      "beard": 3124,
      "guard": 3125,
      "lovely": 3126,
      "ures": 3127,
      "hurting": 3128,
      "swear": 3129,
      "condition": 3130,
      "financially": 3131,
      "creepy": 3132,
      "employee": 3133,
      "bac": 3134,
      "dump": 3135,
      "hous": 3136,
      "ito": 3137,
      "pen": 3138,
      "ug": 3139,
      "toy": 3140,
      "recover": 3141,
      "chem": 3142,
      "ural": 3143,
      "spo": 3144,
      "sters": 3145,
      "speaking": 3146,
      "counting": 3147,
      "graduating": 3148,
      "falling": 3149,
      "club": 3150,
      "president": 3151,
      "english": 3152,
      "occasion": 3153,
      "cing": 3154,
      "tend": 3155,
      "zer": 3156,
      "enty": 3157,
      "belong": 3158,
      "ayed": 3159,
      "sugar": 3160,
      "ups": 3161,
      "grab": 3162,
      "laid": 3163,
      "crack": 3164,
      "compan": 3165,
      "higher": 3166,
      "driveway": 3167,
      "period": 3168,
      "community": 3169,
      "irritating": 3170,
      "shots": 3171,
      "elec": 3172,
      "porch": 3173,
      "argument": 3174,
      "diagnosed": 3175,
      "bread": 3176,
      "hill": 3177,
      "tes": 3178,
      "reach": 3179,
      "lef": 3180,
      "wild": 3181,
      "ohh": 3182,
      "polit": 3183,
      "blessed": 3184,
      "lakers": 3185,
      "kinder": 3186,
      "wrote": 3187,
      "hurts": 3188,
      "ieces": 3189,
      "airport": 3190,
      "fairly": 3191,
      "general": 3192,
      "reunion": 3193,
      "adopted": 3194,
      "vehicle": 3195,
      "gor": 3196,
      "wet": 3197,
      "attic": 3198,
      "rep": 3199,
      "repe": 3200,
      "alco": 3201,
      "velo": 3202,
      "bes": 3203,
      "bell": 3204,
      "esday": 3205,
      "neat": 3206,
      "excus": 3207,
      "join": 3208,
      "apple": 3209,
      "overwhel": 3210,
      "pose": 3211,
      "smoo": 3212,
      "shake": 3213,
      "shape": 3214,
      "garbage": 3215,
      "perfectly": 3216,
      "questions": 3217,
      "injured": 3218,
      "heights": 3219,
      "lefto": 3220,
      "ci": 3221,
      "jail": 3222,
      "mare": 3223,
      "aster": 3224,
      "entered": 3225,
      "heck": 3226,
      "suck": 3227,
      "upon": 3228,
      "def": 3229,
      "tood": 3230,
      "plenty": 3231,
      "common": 3232,
      "span": 3233,
      "bug": 3234,
      "checking": 3235,
      "decide": 3236,
      "ials": 3237,
      "selling": 3238,
      "humili": 3239,
      "snacks": 3240,
      "econ": 3241,
      "tain": 3242,
      "ues": 3243,
      "reg": 3244,
      "chi": 3245,
      "tered": 3246,
      "perform": 3247,
      "mul": 3248,
      "stories": 3249,
      "whoa": 3250,
      "buff": 3251,
      "trick": 3252,
      "path": 3253,
      "remembering": 3254,
      "freak": 3255,
      "recipe": 3256,
      "teaching": 3257,
      "continue": 3258,
      "albums": 3259,
      "negative": 3260,
      "confront": 3261,
      "hawaii": 3262,
      "60": 3263,
      "ban": 3264,
      "bust": 3265,
      "sus": 3266,
      "ites": 3267,
      "suff": 3268,
      "somewhat": 3269,
      "friendship": 3270,
      "likely": 3271,
      "happier": 3272,
      "iling": 3273,
      "nightmare": 3274,
      "tries": 3275,
      "nah": 3276,
      "opening": 3277,
      "relaxed": 3278,
      "sales": 3279,
      "obvious": 3280,
      "screaming": 3281,
      "peeved": 3282,
      "machine": 3283,
      "calculus": 3284,
      "--": 3285,
      "fancy": 3286,
      "nia": 3287,
      "snow": 3288,
      "requ": 3289,
      "ison": 3290,
      "bear": 3291,
      "lling": 3292,
      "depart": 3293,
      "sons": 3294,
      "dies": 3295,
      "walmart": 3296,
      "psy": 3297,
      "traveling": 3298,
      "knock": 3299,
      "nursing": 3300,
      "furnit": 3301,
      "vacuum": 3302,
      "furniture": 3303,
      "cared": 3304,
      "dumped": 3305,
      "fem": 3306,
      "jack": 3307,
      "mal": 3308,
      "ole": 3309,
      "rare": 3310,
      "ino": 3311,
      "mel": 3312,
      "hole": 3313,
      "model": 3314,
      "cops": 3315,
      "shes": 3316,
      "grav": 3317,
      "aft": 3318,
      "shif": 3319,
      "gee": 3320,
      "izing": 3321,
      "warning": 3322,
      "arrive": 3323,
      "iculous": 3324,
      "property": 3325,
      "thrilled": 3326,
      "agreed": 3327,
      "miserable": 3328,
      "hund": 3329,
      "inclu": 3330,
      "daycare": 3331,
      "backed": 3332,
      "history": 3333,
      "recent": 3334,
      "thrones": 3335,
      "cheer": 3336,
      "bringing": 3337,
      "worthy": 3338,
      "appreciative": 3339,
      "pregnancy": 3340,
      "allowed": 3341,
      "education": 3342,
      "employed": 3343,
      "spoke": 3344,
      "non": 3345,
      "vement": 3346,
      "fest": 3347,
      "funer": 3348,
      "tiv": 3349,
      "develo": 3350,
      "arten": 3351,
      "raised": 3352,
      "weekends": 3353,
      "vision": 3354,
      "wins": 3355,
      "meaning": 3356,
      "sweat": 3357,
      "ancing": 3358,
      "answ": 3359,
      "landed": 3360,
      "ridiculous": 3361,
      "scored": 3362,
      "borrowed": 3363,
      "cheesecake": 3364,
      "deter": 3365,
      "incredible": 3366,
      "exercise": 3367,
      "professional": 3368,
      "alcohol": 3369,
      "smooth": 3370,
      "hundred": 3371,
      "21": 3372,
      "bb": 3373,
      "garten": 3374,
      "kore": 3375,
      "mass": 3376,
      "thunder": 3377,
      "atic": 3378,
      "situations": 3379,
      "andon": 3380,
      "abandon": 3381,
      "press": 3382,
      "convin": 3383,
      "urs": 3384,
      "apply": 3385,
      "built": 3386,
      "mention": 3387,
      "plays": 3388,
      "turtle": 3389,
      "blind": 3390,
      "blamed": 3391,
      "steak": 3392,
      "serv": 3393,
      "trave": 3394,
      "painful": 3395,
      "prize": 3396,
      "athlet": 3397,
      "fighting": 3398,
      "quality": 3399,
      "europe": 3400,
      "department": 3401,
      "17": 3402,
      "cting": 3403,
      "fla": 3404,
      "kne": 3405,
      "las": 3406,
      "ina": 3407,
      "usual": 3408,
      "unable": 3409,
      "uncomfortable": 3410,
      "guit": 3411,
      "manage": 3412,
      "crap": 3413,
      "bedroom": 3414,
      "videos": 3415,
      "hired": 3416,
      "canceled": 3417,
      "america": 3418,
      "heavy": 3419,
      "80": 3420,
      "oce": 3421,
      "packing": 3422,
      "soup": 3423,
      "tac": 3424,
      "vegas": 3425,
      "necess": 3426,
      "cock": 3427,
      "loving": 3428,
      "trad": 3429,
      "unic": 3430,
      "ury": 3431,
      "otherwise": 3432,
      "illness": 3433,
      "bull": 3434,
      "believed": 3435,
      "dry": 3436,
      "understanding": 3437,
      "expectations": 3438,
      "accomplishment": 3439,
      "iliar": 3440,
      "dedic": 3441,
      "pigs": 3442,
      "supportive": 3443,
      "motorcycle": 3444,
      "funeral": 3445,
      "soul": 3446,
      "reminis": 3447,
      "ets": 3448,
      "rode": 3449,
      "player": 3450,
      "ctions": 3451,
      "write": 3452,
      "paint": 3453,
      "painting": 3454,
      "trained": 3455,
      "netfli": 3456,
      "qualified": 3457,
      "followed": 3458,
      "delivered": 3459,
      "recogn": 3460,
      "slept": 3461,
      "kindergarten": 3462,
      "female": 3463,
      "guitar": 3464,
      "netflix": 3465,
      "bite": 3466,
      "fro": 3467,
      "rout": 3468,
      "sne": 3469,
      "vase": 3470,
      "zoo": 3471,
      "ination": 3472,
      "recomm": 3473,
      "enter": 3474,
      "tific": 3475,
      "overall": 3476,
      "payment": 3477,
      "huh": 3478,
      "value": 3479,
      "severe": 3480,
      "fond": 3481,
      "lace": 3482,
      "tem": 3483,
      "react": 3484,
      "isnt": 3485,
      "adays": 3486,
      "roach": 3487,
      "iring": 3488,
      "waitress": 3489,
      "familiar": 3490,
      "underwear": 3491,
      "foods": 3492,
      "breed": 3493,
      "flag": 3494,
      "doors": 3495,
      "dealing": 3496,
      "difference": 3497,
      "presents": 3498,
      "starved": 3499,
      "physical": 3500,
      "pressure": 3501,
      "lifting": 3502,
      "beginning": 3503,
      "cherish": 3504,
      "electri": 3505,
      "cab": 3506,
      "cure": 3507,
      "hall": 3508,
      "nis": 3509,
      "vir": 3510,
      "wit": 3511,
      "thurs": 3512,
      "ionate": 3513,
      "activ": 3514,
      "abuse": 3515,
      "nowadays": 3516,
      "unknown": 3517,
      "anytime": 3518,
      "applic": 3519,
      "bored": 3520,
      "spell": 3521,
      "kinds": 3522,
      "daily": 3523,
      "flash": 3524,
      "pics": 3525,
      "horse": 3526,
      "stray": 3527,
      "corn": 3528,
      "praying": 3529,
      "slowly": 3530,
      "flir": 3531,
      "scares": 3532,
      "chain": 3533,
      "dragon": 3534,
      "kiss": 3535,
      "addict": 3536,
      "ocean": 3537,
      "dut": 3538,
      "national": 3539,
      "sept": 3540,
      "shining": 3541,
      "promise": 3542,
      "cali": 3543,
      "salad": 3544,
      "hiking": 3545,
      "loaned": 3546,
      "purpose": 3547,
      "panic": 3548,
      "film": 3549,
      "incredibly": 3550,
      "bottle": 3551,
      "necklace": 3552,
      "kicked": 3553,
      "multi": 3554,
      "thursday": 3555,
      "september": 3556,
      "jour": 3557,
      "uary": 3558,
      "wing": 3559,
      "yuck": 3560,
      "rely": 3561,
      "aging": 3562,
      "somed": 3563,
      "rich": 3564,
      "dos": 3565,
      "ceed": 3566,
      "dear": 3567,
      "inder": 3568,
      "homework": 3569,
      "sounded": 3570,
      "tors": 3571,
      "mario": 3572,
      "upsetting": 3573,
      "smile": 3574,
      "earn": 3575,
      "truth": 3576,
      "reasons": 3577,
      "slam": 3578,
      "rides": 3579,
      "simp": 3580,
      "practiced": 3581,
      "budget": 3582,
      "snakes": 3583,
      "skydiving": 3584,
      "toddler": 3585,
      "travelling": 3586,
      "pian": 3587,
      "temp": 3588,
      "zed": 3589,
      "envy": 3590,
      "aggrav": 3591,
      "chasing": 3592,
      "west": 3593,
      "alled": 3594,
      "fries": 3595,
      "contr": 3596,
      "sadly": 3597,
      "umping": 3598,
      "sink": 3599,
      "closing": 3600,
      "standing": 3601,
      "marath": 3602,
      "mates": 3603,
      "boxes": 3604,
      "eager": 3605,
      "advant": 3606,
      "medicine": 3607,
      "teenager": 3608,
      "ditched": 3609,
      "houses": 3610,
      "juni": 3611,
      "san": 3612,
      "remain": 3613,
      "ements": 3614,
      "stri": 3615,
      "lected": 3616,
      "chip": 3617,
      "tern": 3618,
      "excell": 3619,
      "grant": 3620,
      "distr": 3621,
      "gestu": 3622,
      "spit": 3623,
      "record": 3624,
      "chef": 3625,
      "calls": 3626,
      "understandable": 3627,
      "changing": 3628,
      "damn": 3629,
      "champ": 3630,
      "advance": 3631,
      "refused": 3632,
      "yelling": 3633,
      "eggs": 3634,
      "leftovers": 3635,
      "regis": 3636,
      "junior": 3637,
      "ee": 3638,
      "mow": 3639,
      "omy": 3640,
      "punch": 3641,
      "rup": 3642,
      "tinder": 3643,
      "yy": 3644,
      "ony": 3645,
      "orig": 3646,
      "force": 3647,
      "web": 3648,
      "pepper": 3649,
      "mosqu": 3650,
      "conven": 3651,
      "plate": 3652,
      "shi": 3653,
      "shy": 3654,
      "everybody": 3655,
      "madden": 3656,
      "trustworthy": 3657,
      "highway": 3658,
      "ruin": 3659,
      "stores": 3660,
      "hurry": 3661,
      "dealer": 3662,
      "chann": 3663,
      "staring": 3664,
      "potty": 3665,
      "secrets": 3666,
      "scratched": 3667,
      "braves": 3668,
      "direction": 3669,
      "risk": 3670,
      "buffet": 3671,
      "origin": 3672,
      "mosquito": 3673,
      "cla": 3674,
      "hmm": 3675,
      "sight": 3676,
      "vs": 3677,
      "income": 3678,
      "inconsiderate": 3679,
      "fornia": 3680,
      "elder": 3681,
      "neither": 3682,
      "hopes": 3683,
      "fried": 3684,
      "grap": 3685,
      "workout": 3686,
      "printer": 3687,
      "joke": 3688,
      "ension": 3689,
      "shocking": 3690,
      "members": 3691,
      "drama": 3692,
      "marry": 3693,
      "istic": 3694,
      "hua": 3695,
      "ketch": 3696,
      "related": 3697,
      "numbers": 3698,
      "crime": 3699,
      "talented": 3700,
      "camera": 3701,
      "committed": 3702,
      "witness": 3703,
      "california": 3704,
      "marathon": 3705,
      "blo": 3706,
      "dancing": 3707,
      "lan": 3708,
      "lli": 3709,
      "wan": 3710,
      "wine": 3711,
      "ene": 3712,
      "habit": 3713,
      "idered": 3714,
      "adul": 3715,
      "seas": 3716,
      "abilities": 3717,
      "unsure": 3718,
      "rap": 3719,
      "hometown": 3720,
      "surprising": 3721,
      "provide": 3722,
      "gather": 3723,
      "dying": 3724,
      "trips": 3725,
      "singing": 3726,
      "teachers": 3727,
      "considered": 3728,
      "approach": 3729,
      "1000": 3730,
      "rescued": 3731,
      "pushed": 3732,
      "crowd": 3733,
      "mexican": 3734,
      "bearded": 3735,
      "excellent": 3736,
      "granted": 3737,
      "bour": 3738,
      "dated": 3739,
      "goo": 3740,
      "jap": 3741,
      "rab": 3742,
      "ud": 3743,
      "thous": 3744,
      "edge": 3745,
      "isol": 3746,
      "element": 3747,
      "aced": 3748,
      "term": 3749,
      "butt": 3750,
      "spir": 3751,
      "parcel": 3752,
      "lets": 3753,
      "unders": 3754,
      "bled": 3755,
      "decor": 3756,
      "heading": 3757,
      "gia": 3758,
      "rained": 3759,
      "frequ": 3760,
      "texting": 3761,
      "casino": 3762,
      "attacked": 3763,
      "laying": 3764,
      "drug": 3765,
      "welcome": 3766,
      "natural": 3767,
      "apologize": 3768,
      "relatives": 3769,
      "obviously": 3770,
      "determin": 3771,
      "application": 3772,
      "japan": 3773,
      "thousand": 3774,
      "300": 3775,
      "bang": 3776,
      "chair": 3777,
      "ja": 3778,
      "jumping": 3779,
      "rate": 3780,
      "saf": 3781,
      "yum": 3782,
      "itself": 3783,
      "mechan": 3784,
      "emotions": 3785,
      "forgive": 3786,
      "ada": 3787,
      "host": 3788,
      "tight": 3789,
      "previous": 3790,
      "survi": 3791,
      "tele": 3792,
      "overcome": 3793,
      "schools": 3794,
      "stock": 3795,
      "tricks": 3796,
      "thoughts": 3797,
      "thoughtful": 3798,
      "december": 3799,
      "message": 3800,
      "tasted": 3801,
      "finger": 3802,
      "oppo": 3803,
      "screamed": 3804,
      "smoke": 3805,
      "cameras": 3806,
      "silly": 3807,
      "rewarding": 3808,
      "labor": 3809,
      "necessary": 3810,
      "advantage": 3811,
      "gesture": 3812,
      "eww": 3813,
      "fc": 3814,
      "fool": 3815,
      "hire": 3816,
      "ker": 3817,
      "lend": 3818,
      "pend": 3819,
      "sucked": 3820,
      "affect": 3821,
      "barking": 3822,
      "function": 3823,
      "colors": 3824,
      "france": 3825,
      "anticipation": 3826,
      "wishing": 3827,
      "opin": 3828,
      "trail": 3829,
      "docu": 3830,
      "baked": 3831,
      "management": 3832,
      "society": 3833,
      "cord": 3834,
      "finances": 3835,
      "cousins": 3836,
      "bags": 3837,
      "clim": 3838,
      "octo": 3839,
      "battle": 3840,
      "benef": 3841,
      "taxes": 3842,
      "experienced": 3843,
      "uneasy": 3844,
      "diapers": 3845,
      "retirement": 3846,
      "humiliated": 3847,
      "taco": 3848,
      "orable": 3849,
      "becoming": 3850,
      "choo": 3851,
      "chose": 3852,
      "adorable": 3853,
      "limit": 3854,
      "livid": 3855,
      "hobby": 3856,
      "loans": 3857,
      "willing": 3858,
      "complic": 3859,
      "classic": 3860,
      "explo": 3861,
      "nearby": 3862,
      "auto": 3863,
      "considering": 3864,
      "songs": 3865,
      "employer": 3866,
      "purchase": 3867,
      "washing": 3868,
      "nature": 3869,
      "hello": 3870,
      "annual": 3871,
      "mountains": 3872,
      "officer": 3873,
      "judge": 3874,
      "attractive": 3875,
      "introdu": 3876,
      "excuse": 3877,
      "abandoned": 3878,
      "multiple": 3879,
      "someday": 3880,
      "simply": 3881,
      "piano": 3882,
      "october": 3883,
      "aver": 3884,
      "cin": 3885,
      "ery": 3886,
      "ench": 3887,
      "betr": 3888,
      "icy": 3889,
      "ache": 3890,
      "holy": 3891,
      "imp": 3892,
      "spare": 3893,
      "pocket": 3894,
      "quar": 3895,
      "litter": 3896,
      "certific": 3897,
      "blow": 3898,
      "complex": 3899,
      "scold": 3900,
      "decisions": 3901,
      "writing": 3902,
      "allergic": 3903,
      "character": 3904,
      "stubbed": 3905,
      "athletic": 3906,
      "wanna": 3907,
      "elementary": 3908,
      "cious": 3909,
      "dirt": 3910,
      "hilar": 3911,
      "mic": 3912,
      "coll": 3913,
      "friendly": 3914,
      "sau": 3915,
      "appear": 3916,
      "poison": 3917,
      "blessing": 3918,
      "monsters": 3919,
      "actual": 3920,
      "breath": 3921,
      "restroom": 3922,
      "interviewed": 3923,
      "farm": 3924,
      "treated": 3925,
      "approached": 3926,
      "potato": 3927,
      "august": 3928,
      "rollercoaster": 3929,
      "bowling": 3930,
      "client": 3931,
      "killing": 3932,
      "improve": 3933,
      "pleasant": 3934,
      "shooting": 3935,
      "tesla": 3936,
      "recommend": 3937,
      "duty": 3938,
      "gig": 3939,
      "hat": 3940,
      "ival": 3941,
      "mw": 3942,
      "raf": 3943,
      "tall": 3944,
      "ences": 3945,
      "bee": 3946,
      "chill": 3947,
      "aming": 3948,
      "sex": 3949,
      "role": 3950,
      "gover": 3951,
      "precious": 3952,
      "ourselves": 3953,
      "blew": 3954,
      "tennis": 3955,
      "birds": 3956,
      "blan": 3957,
      "clown": 3958,
      "sist": 3959,
      "favorites": 3960,
      "rene": 3961,
      "windows": 3962,
      "disneyland": 3963,
      "avail": 3964,
      "addition": 3965,
      "relieved": 3966,
      "2000": 3967,
      "achieve": 3968,
      "motivated": 3969,
      "engineering": 3970,
      "flags": 3971,
      "elderly": 3972,
      "itor": 3973,
      "kin": 3974,
      "mouse": 3975,
      "sending": 3976,
      "rear": 3977,
      "resol": 3978,
      "iso": 3979,
      "legs": 3980,
      "chased": 3981,
      "adm": 3982,
      "esca": 3983,
      "secure": 3984,
      "root": 3985,
      "coast": 3986,
      "unhappy": 3987,
      "happiness": 3988,
      "scam": 3989,
      "superbowl": 3990,
      "creat": 3991,
      "traum": 3992,
      "attached": 3993,
      "couples": 3994,
      "failing": 3995,
      "fights": 3996,
      "struggle": 3997,
      "communic": 3998,
      "independ": 3999,
      "savings": 4000,
      "properly": 4001,
      "booked": 4002,
      "smoking": 4003,
      "announ": 4004,
      "product": 4005,
      "demand": 4006,
      "ramen": 4007,
      "volunteered": 4008,
      "overwhelming": 4009,
      "spanish": 4010,
      "answers": 4011,
      "hoo": 4012,
      "jury": 4013,
      "mv": 4014,
      "mort": 4015,
      "ware": 4016,
      "atleast": 4017,
      "arent": 4018,
      "het": 4019,
      "hesit": 4020,
      "nest": 4021,
      "butter": 4022,
      "anybody": 4023,
      "distra": 4024,
      "boot": 4025,
      "firm": 4026,
      "laund": 4027,
      "shoe": 4028,
      "uled": 4029,
      "bitter": 4030,
      "compass": 4031,
      "mark": 4032,
      "highschool": 4033,
      "wondering": 4034,
      "skating": 4035,
      "roommates": 4036,
      "physically": 4037,
      "bothering": 4038,
      "organized": 4039,
      "colorado": 4040,
      "nicer": 4041,
      "characters": 4042,
      "frightened": 4043,
      "split": 4044,
      "festival": 4045,
      "distraught": 4046,
      "22": 4047,
      "aid": 4048,
      "aven": 4049,
      "ec": 4050,
      "fal": 4051,
      "gage": 4052,
      "ime": 4053,
      "sion": 4054,
      "tro": 4055,
      "wis": 4056,
      "inc": 4057,
      "keto": 4058,
      "roaches": 4059,
      "sug": 4060,
      "joined": 4061,
      "disease": 4062,
      "hardest": 4063,
      "tear": 4064,
      "sched": 4065,
      "overseas": 4066,
      "episo": 4067,
      "particip": 4068,
      "enses": 4069,
      "dressed": 4070,
      "counter": 4071,
      "expired": 4072,
      "master": 4073,
      "basic": 4074,
      "prior": 4075,
      "airplane": 4076,
      "deserves": 4077,
      "clue": 4078,
      "freshman": 4079,
      "croat": 4080,
      "radio": 4081,
      "challeng": 4082,
      "opinion": 4083,
      "available": 4084,
      "35": 4085,
      "800": 4086,
      "bake": 4087,
      "pump": 4088,
      "pink": 4089,
      "tar": 4090,
      "info": 4091,
      "veget": 4092,
      "ender": 4093,
      "golf": 4094,
      "apping": 4095,
      "bomb": 4096,
      "spok": 4097,
      "terribly": 4098,
      "fami": 4099,
      "sett": 4100,
      "grandpa": 4101,
      "guessing": 4102,
      "leaves": 4103,
      "breaks": 4104,
      "county": 4105,
      "priv": 4106,
      "glasses": 4107,
      "written": 4108,
      "mexico": 4109,
      "ignored": 4110,
      "responsibility": 4111,
      "temper": 4112,
      "journey": 4113,
      "opposite": 4114,
      "spoken": 4115,
      "bmw": 4116,
      "cig": 4117,
      "ctor": 4118,
      "ges": 4119,
      "lent": 4120,
      "oven": 4121,
      "recit": 4122,
      "ali": 4123,
      "arrest": 4124,
      "oops": 4125,
      "acket": 4126,
      "mold": 4127,
      "deer": 4128,
      "ohhh": 4129,
      "cap": 4130,
      "causing": 4131,
      "donate": 4132,
      "green": 4133,
      "bless": 4134,
      "actions": 4135,
      "blings": 4136,
      "showing": 4137,
      "rules": 4138,
      "mothers": 4139,
      "accidents": 4140,
      "relationships": 4141,
      "pulling": 4142,
      "nurse": 4143,
      "mcdonald": 4144,
      "assume": 4145,
      "spelling": 4146,
      "certification": 4147,
      "laundry": 4148,
      "croatia": 4149,
      "families": 4150,
      "24": 4151,
      "70": 4152,
      "ians": 4153,
      "junk": 4154,
      "lines": 4155,
      "mut": 4156,
      "nment": 4157,
      "thro": 4158,
      "itive": 4159,
      "anti": 4160,
      "ionship": 4161,
      "refle": 4162,
      "replaced": 4163,
      "aly": 4164,
      "stic": 4165,
      "stren": 4166,
      "rip": 4167,
      "advent": 4168,
      "ution": 4169,
      "areas": 4170,
      "sum": 4171,
      "ably": 4172,
      "decl": 4173,
      "unit": 4174,
      "donuts": 4175,
      "discovered": 4176,
      "spar": 4177,
      "polic": 4178,
      "glut": 4179,
      "throughout": 4180,
      "neighbour": 4181,
      "supermarket": 4182,
      "serve": 4183,
      "ticked": 4184,
      "tons": 4185,
      "cowboys": 4186,
      "ires": 4187,
      "matters": 4188,
      "siblings": 4189,
      "muscle": 4190,
      "nephews": 4191,
      "respond": 4192,
      "possibly": 4193,
      "succeed": 4194,
      "balance": 4195,
      "posted": 4196,
      "exercising": 4197,
      "depend": 4198,
      "transfer": 4199,
      "material": 4200,
      "besides": 4201,
      "psycho": 4202,
      "shift": 4203,
      "knee": 4204,
      "isolated": 4205,
      "understood": 4206,
      "climbing": 4207,
      "2nd": 4208,
      "bak": 4209,
      "bothers": 4210,
      "kar": 4211,
      "rage": 4212,
      "sem": 4213,
      "var": 4214,
      "itis": 4215,
      "request": 4216,
      "regard": 4217,
      "icted": 4218,
      "debit": 4219,
      "wore": 4220,
      "nostalgia": 4221,
      "compared": 4222,
      "dads": 4223,
      "talks": 4224,
      "haircut": 4225,
      "july": 4226,
      "names": 4227,
      "unexpectedly": 4228,
      "flooded": 4229,
      "bottom": 4230,
      "american": 4231,
      "magic": 4232,
      "inspired": 4233,
      "crawling": 4234,
      "circus": 4235,
      "economy": 4236,
      "claim": 4237,
      "television": 4238,
      "average": 4239,
      "hilarious": 4240,
      "private": 4241,
      "streng": 4242,
      "bout": 4243,
      "bound": 4244,
      "bio": 4245,
      "bond": 4246,
      "hike": 4247,
      "py": 4248,
      "pile": 4249,
      "tat": 4250,
      "vit": 4251,
      "yan": 4252,
      "yay": 4253,
      "zi": 4254,
      "thor": 4255,
      "reje": 4256,
      "theater": 4257,
      "soda": 4258,
      "leash": 4259,
      "eliness": 4260,
      "ades": 4261,
      "section": 4262,
      "immu": 4263,
      "coach": 4264,
      "prank": 4265,
      "knowled": 4266,
      "cavs": 4267,
      "sured": 4268,
      "jeans": 4269,
      "players": 4270,
      "intern": 4271,
      "fru": 4272,
      "aware": 4273,
      "sooner": 4274,
      "forgotten": 4275,
      "choices": 4276,
      "bath": 4277,
      "valu": 4278,
      "changes": 4279,
      "shorts": 4280,
      "intense": 4281,
      "brave": 4282,
      "center": 4283,
      "binge": 4284,
      "respectful": 4285,
      "apologized": 4286,
      "loneliness": 4287,
      "static": 4288,
      "chatting": 4289,
      "experiences": 4290,
      "punish": 4291,
      "activities": 4292,
      "complicated": 4293,
      "ecstatic": 4294,
      "suggest": 4295,
      "immune": 4296,
      "block": 4297,
      "cast": 4298,
      "eve": 4299,
      "fra": 4300,
      "faster": 4301,
      "gal": 4302,
      "kni": 4303,
      "swer": 4304,
      "vive": 4305,
      "wings": 4306,
      "inno": 4307,
      "usa": 4308,
      "usive": 4309,
      "ential": 4310,
      "istry": 4311,
      "som": 4312,
      "youth": 4313,
      "idi": 4314,
      "chic": 4315,
      "lla": 4316,
      "tian": 4317,
      "irked": 4318,
      "antic": 4319,
      "express": 4320,
      "hero": 4321,
      "happend": 4322,
      "types": 4323,
      "shat": 4324,
      "finals": 4325,
      "waking": 4326,
      "fol": 4327,
      "embarassed": 4328,
      "sidewalk": 4329,
      "husky": 4330,
      "vacations": 4331,
      "counsel": 4332,
      "ladies": 4333,
      "catching": 4334,
      "damaged": 4335,
      "paperwork": 4336,
      "touched": 4337,
      "curious": 4338,
      "election": 4339,
      "wheel": 4340,
      "profess": 4341,
      "leading": 4342,
      "employees": 4343,
      "crossing": 4344,
      "chemistry": 4345,
      "korean": 4346,
      "mechanic": 4347,
      "scheduled": 4348,
      "knife": 4349,
      "equ": 4350,
      "fake": 4351,
      "ible": 4352,
      "jam": 4353,
      "nieces": 4354,
      "pitch": 4355,
      "sush": 4356,
      "uber": 4357,
      "ufc": 4358,
      "van": 4359,
      "vable": 4360,
      "vember": 4361,
      "wars": 4362,
      "hab": 4363,
      "army": 4364,
      "socks": 4365,
      "selected": 4366,
      "theres": 4367,
      "accus": 4368,
      "november": 4369,
      "grind": 4370,
      "ify": 4371,
      "ilot": 4372,
      "harm": 4373,
      "survive": 4374,
      "lotto": 4375,
      "kidding": 4376,
      "parties": 4377,
      "acts": 4378,
      "cares": 4379,
      "careless": 4380,
      "crit": 4381,
      "lessons": 4382,
      "headphones": 4383,
      "rolls": 4384,
      "prices": 4385,
      "worrying": 4386,
      "response": 4387,
      "effect": 4388,
      "hunting": 4389,
      "candid": 4390,
      "adopt": 4391,
      "wooded": 4392,
      "signific": 4393,
      "depress": 4394,
      "wrecked": 4395,
      "focused": 4396,
      "events": 4397,
      "boost": 4398,
      "shady": 4399,
      "bachel": 4400,
      "electric": 4401,
      "determined": 4402,
      "survived": 4403,
      "raffle": 4404,
      "sushi": 4405,
      "awaiting": 4406,
      "dmv": 4407,
      "gle": 4408,
      "gut": 4409,
      "sketch": 4410,
      "influ": 4411,
      "retired": 4412,
      "returning": 4413,
      "aggress": 4414,
      "wasp": 4415,
      "lest": 4416,
      "chin": 4417,
      "worries": 4418,
      "loc": 4419,
      "notes": 4420,
      "akes": 4421,
      "condo": 4422,
      "plants": 4423,
      "appy": 4424,
      "appet": 4425,
      "shir": 4426,
      "brag": 4427,
      "ular": 4428,
      "crappy": 4429,
      "colleague": 4430,
      "personally": 4431,
      "access": 4432,
      "charity": 4433,
      "finishing": 4434,
      "wedn": 4435,
      "tuesday": 4436,
      "hung": 4437,
      "treats": 4438,
      "sorts": 4439,
      "arms": 4440,
      "donald": 4441,
      "clearly": 4442,
      "reviews": 4443,
      "proposed": 4444,
      "suprising": 4445,
      "gaming": 4446,
      "tools": 4447,
      "required": 4448,
      "develop": 4449,
      "dealership": 4450,
      "vegetable": 4451,
      "arrested": 4452,
      "throat": 4453,
      "bakery": 4454,
      "strength": 4455,
      "innocent": 4456,
      "bid": 4457,
      "cere": 4458,
      "dor": 4459,
      "doo": 4460,
      "dread": 4461,
      "mur": 4462,
      "male": 4463,
      "twent": 4464,
      "wound": 4465,
      "errand": 4466,
      "reli": 4467,
      "reaction": 4468,
      "stain": 4469,
      "forth": 4470,
      "sea": 4471,
      "febr": 4472,
      "impossible": 4473,
      "moon": 4474,
      "location": 4475,
      "deb": 4476,
      "deposit": 4477,
      "iled": 4478,
      "thinks": 4479,
      "fav": 4480,
      "pol": 4481,
      "thrown": 4482,
      "mentally": 4483,
      "marks": 4484,
      "stuffed": 4485,
      "baking": 4486,
      "fortunately": 4487,
      "based": 4488,
      "laws": 4489,
      "puppies": 4490,
      "treatment": 4491,
      "pati": 4492,
      "submit": 4493,
      "tasty": 4494,
      "mainly": 4495,
      "depressing": 4496,
      "bench": 4497,
      "sharing": 4498,
      "achievement": 4499,
      "rotten": 4500,
      "gained": 4501,
      "transport": 4502,
      "dumpster": 4503,
      "reminisce": 4504,
      "approaching": 4505,
      "mortgage": 4506,
      "rejected": 4507,
      "idiot": 4508,
      "february": 4509,
      "400": 4510,
      "cs": 4511,
      "twins": 4512,
      "ature": 4513,
      "init": 4514,
      "tori": 4515,
      "envir": 4516,
      "iting": 4517,
      "itary": 4518,
      "theme": 4519,
      "metal": 4520,
      "alley": 4521,
      "hamas": 4522,
      "began": 4523,
      "stro": 4524,
      "adjust": 4525,
      "ety": 4526,
      "rome": 4527,
      "fected": 4528,
      "nology": 4529,
      "trag": 4530,
      "pred": 4531,
      "comed": 4532,
      "letters": 4533,
      "ctic": 4534,
      "ordering": 4535,
      "voice": 4536,
      "bahamas": 4537,
      "snu": 4538,
      "2018": 4539,
      "freaking": 4540,
      "messing": 4541,
      "darn": 4542,
      "patience": 4543,
      "squir": 4544,
      "ghosts": 4545,
      "evil": 4546,
      "struggled": 4547,
      "technology": 4548,
      "nailed": 4549,
      "grill": 4550,
      "tasks": 4551,
      "belt": 4552,
      "zero": 4553,
      "geez": 4554,
      "flavor": 4555,
      "adults": 4556,
      "spirit": 4557,
      "frequently": 4558,
      "document": 4559,
      "gluten": 4560,
      "depression": 4561,
      "aggressive": 4562,
      "environ": 4563,
      "4th": 4564,
      "aa": 4565,
      "brain": 4566,
      "igu": 4567,
      "jet": 4568,
      "ls": 4569,
      "lack": 4570,
      "rarely": 4571,
      "slight": 4572,
      "ange": 4573,
      "replac": 4574,
      "reached": 4575,
      "otic": 4576,
      "altern": 4577,
      "hest": 4578,
      "chances": 4579,
      "seaf": 4580,
      "abroad": 4581,
      "tie": 4582,
      "cope": 4583,
      "atest": 4584,
      "cony": 4585,
      "typic": 4586,
      "guest": 4587,
      "greatest": 4588,
      "brush": 4589,
      "downstairs": 4590,
      "guilt": 4591,
      "blown": 4592,
      "puked": 4593,
      "reality": 4594,
      "stays": 4595,
      "served": 4596,
      "skip": 4597,
      "horribly": 4598,
      "shaking": 4599,
      "chores": 4600,
      "gifted": 4601,
      "expenses": 4602,
      "storage": 4603,
      "midnight": 4604,
      "bumped": 4605,
      "rollercoasters": 4606,
      "tastes": 4607,
      "kitty": 4608,
      "squid": 4609,
      "balcony": 4610,
      "straw": 4611,
      "yoga": 4612,
      "popular": 4613,
      "inspiring": 4614,
      "90s": 4615,
      "mixed": 4616,
      "released": 4617,
      "belongings": 4618,
      "convenient": 4619,
      "graph": 4620,
      "witnessed": 4621,
      "langu": 4622,
      "choose": 4623,
      "sauce": 4624,
      "reliable": 4625,
      "environment": 4626,
      "seafood": 4627,
      "8th": 4628,
      "nity": 4629,
      "pal": 4630,
      "pie": 4631,
      "pieces": 4632,
      "rd": 4633,
      "sour": 4634,
      "yer": 4635,
      "inti": 4636,
      "outcome": 4637,
      "pler": 4638,
      "file": 4639,
      "iphone": 4640,
      "pretended": 4641,
      "craft": 4642,
      "boyfriends": 4643,
      "craving": 4644,
      "treas": 4645,
      "fixing": 4646,
      "delayed": 4647,
      "parks": 4648,
      "completed": 4649,
      "burn": 4650,
      "appropri": 4651,
      "invested": 4652,
      "fiancee": 4653,
      "hyped": 4654,
      "protective": 4655,
      "hamster": 4656,
      "skiing": 4657,
      "volunteer": 4658,
      "lunches": 4659,
      "softball": 4660,
      "spoiled": 4661,
      "political": 4662,
      "championship": 4663,
      "quarter": 4664,
      "hesitant": 4665,
      "internship": 4666,
      "bachelor": 4667,
      "wednesday": 4668,
      "45": 4669,
      "ais": 4670,
      "dough": 4671,
      "dess": 4672,
      "ey": 4673,
      "fb": 4674,
      "fold": 4675,
      "jit": 4676,
      "jacket": 4677,
      "nes": 4678,
      "nfl": 4679,
      "option": 4680,
      "pi": 4681,
      "rus": 4682,
      "spre": 4683,
      "tun": 4684,
      "onions": 4685,
      "ert": 4686,
      "toward": 4687,
      "itions": 4688,
      "retail": 4689,
      "meals": 4690,
      "ari": 4691,
      "vegan": 4692,
      "heaven": 4693,
      "lego": 4694,
      "ooh": 4695,
      "chase": 4696,
      "separ": 4697,
      "acle": 4698,
      "hoped": 4699,
      "canada": 4700,
      "unfair": 4701,
      "sche": 4702,
      "dip": 4703,
      "thru": 4704,
      "beforehand": 4705,
      "cloud": 4706,
      "hahah": 4707,
      "cutting": 4708,
      "pasta": 4709,
      "skunk": 4710,
      "messy": 4711,
      "cookie": 4712,
      "audi": 4713,
      "papers": 4714,
      "motivation": 4715,
      "connect": 4716,
      "connected": 4717,
      "frightening": 4718,
      "regularly": 4719,
      "gambling": 4720,
      "gorge": 4721,
      "distracted": 4722,
      "benefits": 4723,
      "potatoes": 4724,
      "recital": 4725,
      "tattoo": 4726,
      "yanke": 4727,
      "chicago": 4728,
      "stroke": 4729,
      "tragic": 4730,
      "cage": 4731,
      "hip": 4732,
      "kay": 4733,
      "lin": 4734,
      "lower": 4735,
      "tens": 4736,
      "woo": 4737,
      "thick": 4738,
      "repa": 4739,
      "reserv": 4740,
      "orland": 4741,
      "carto": 4742,
      "newborn": 4743,
      "ille": 4744,
      "teh": 4745,
      "ipes": 4746,
      "girlfriends": 4747,
      "ization": 4748,
      "setting": 4749,
      "payments": 4750,
      "cris": 4751,
      "version": 4752,
      "north": 4753,
      "warming": 4754,
      "safely": 4755,
      "hospice": 4756,
      "simpler": 4757,
      "subway": 4758,
      "generation": 4759,
      "generally": 4760,
      "celebrated": 4761,
      "maintain": 4762,
      "pushing": 4763,
      "supporting": 4764,
      "grabbed": 4765,
      "companies": 4766,
      "sneak": 4767,
      "addiction": 4768,
      "original": 4769,
      "rabbit": 4770,
      "government": 4771,
      "professor": 4772,
      "shirts": 4773,
      "murder": 4774,
      "orlando": 4775,
      "bare": 4776,
      "bility": 4777,
      "gpa": 4778,
      "hits": 4779,
      "pill": 4780,
      "patch": 4781,
      "tent": 4782,
      "wide": 4783,
      "enced": 4784,
      "oups": 4785,
      "asap": 4786,
      "customers": 4787,
      "bean": 4788,
      "lease": 4789,
      "ows": 4790,
      "hers": 4791,
      "devest": 4792,
      "assign": 4793,
      "discount": 4794,
      "disci": 4795,
      "shri": 4796,
      "comfor": 4797,
      "tears": 4798,
      "homes": 4799,
      "homeschool": 4800,
      "scri": 4801,
      "scra": 4802,
      "whom": 4803,
      "prov": 4804,
      "mont": 4805,
      "confused": 4806,
      "cheaper": 4807,
      "brace": 4808,
      "interrup": 4809,
      "belief": 4810,
      "ashed": 4811,
      "classmates": 4812,
      "brea": 4813,
      "daddy": 4814,
      "stepping": 4815,
      "runs": 4816,
      "specif": 4817,
      "deals": 4818,
      "handy": 4819,
      "shared": 4820,
      "slide": 4821,
      "solid": 4822,
      "duck": 4823,
      "tuition": 4824,
      "flip": 4825,
      "flipped": 4826,
      "boarding": 4827,
      "legal": 4828,
      "evicted": 4829,
      "refuse": 4830,
      "golden": 4831,
      "directions": 4832,
      "instantly": 4833,
      "shark": 4834,
      "crowded": 4835,
      "suprised": 4836,
      "babysitter": 4837,
      "nightmares": 4838,
      "smoothly": 4839,
      "routine": 4840,
      "cabin": 4841,
      "contract": 4842,
      "register": 4843,
      "admire": 4844,
      "semi": 4845,
      "knowledge": 4846,
      "valuable": 4847,
      "accused": 4848,
      "significant": 4849,
      "appetite": 4850,
      "devestated": 4851,
      "discipl": 4852,
      "3rd": 4853,
      "bree": 4854,
      "cass": 4855,
      "gent": 4856,
      "hr": 4857,
      "mma": 4858,
      "wat": 4859,
      "ano": 4860,
      "sole": 4861,
      "lym": 4862,
      "owe": 4863,
      "keting": 4864,
      "amp": 4865,
      "aces": 4866,
      "upt": 4867,
      "prin": 4868,
      "discus": 4869,
      "distur": 4870,
      "mum": 4871,
      "sadden": 4872,
      "pos": 4873,
      "nightlight": 4874,
      "startled": 4875,
      "pretend": 4876,
      "chest": 4877,
      "bran": 4878,
      "turkey": 4879,
      "french": 4880,
      "wished": 4881,
      "clothing": 4882,
      "clin": 4883,
      "tells": 4884,
      "eats": 4885,
      "descri": 4886,
      "handling": 4887,
      "restaurants": 4888,
      "cakes": 4889,
      "stressing": 4890,
      "troubles": 4891,
      "screwed": 4892,
      "listened": 4893,
      "fireworks": 4894,
      "celebrating": 4895,
      "honda": 4896,
      "complained": 4897,
      "clearance": 4898,
      "goldfish": 4899,
      "protect": 4900,
      "depends": 4901,
      "instructor": 4902,
      "hiding": 4903,
      "teenagers": 4904,
      "filling": 4905,
      "pointed": 4906,
      "challen": 4907,
      "busted": 4908,
      "including": 4909,
      "convinced": 4910,
      "mentioned": 4911,
      "slammed": 4912,
      "google": 4913,
      "safety": 4914,
      "incident": 4915,
      "aliens": 4916,
      "shattered": 4917,
      "sketchy": 4918,
      "chinese": 4919,
      "gorgeous": 4920,
      "dement": 4921,
      "ht": 4922,
      "hen": 4923,
      "ns": 4924,
      "nut": 4925,
      "pup": 4926,
      "ror": 4927,
      "rum": 4928,
      "rang": 4929,
      "erence": 4930,
      "topping": 4931,
      "ency": 4932,
      "redi": 4933,
      "recovered": 4934,
      "ingredi": 4935,
      "thetic": 4936,
      "sore": 4937,
      "becomes": 4938,
      "stone": 4939,
      "rice": 4940,
      "etime": 4941,
      "irma": 4942,
      "groups": 4943,
      "unting": 4944,
      "unbelie": 4945,
      "uncertain": 4946,
      "disaster": 4947,
      "tea": 4948,
      "ours": 4949,
      "prison": 4950,
      "overnight": 4951,
      "settle": 4952,
      "payday": 4953,
      "testing": 4954,
      "picnic": 4955,
      "example": 4956,
      "healing": 4957,
      "handful": 4958,
      "teams": 4959,
      "bosses": 4960,
      "eachother": 4961,
      "storming": 4962,
      "deadline": 4963,
      "starving": 4964,
      "starbucks": 4965,
      "smashed": 4966,
      "climate": 4967,
      "cudd": 4968,
      "switching": 4969,
      "crimin": 4970,
      "teenage": 4971,
      "employment": 4972,
      "ballet": 4973,
      "detail": 4974,
      "personality": 4975,
      "demo": 4976,
      "ignore": 4977,
      "software": 4978,
      "responsibilities": 4979,
      "repeated": 4980,
      "tradition": 4981,
      "aggravating": 4982,
      "folks": 4983,
      "patients": 4984,
      "yankees": 4985,
      "kayaking": 4986,
      "specifically": 4987,
      "challenge": 4988,
      "dementia": 4989,
      "64": 4990,
      "dreading": 4991,
      "east": 4992,
      "fits": 4993,
      "hass": 4994,
      "olym": 4995,
      "rr": 4996,
      "sam": 4997,
      "stood": 4998,
      "vic": 4999,
      "vard": 5000,
      "ville": 5001,
      "zard": 5002,
      "infront": 5003,
      "reas": 5004,
      "beating": 5005,
      "beside": 5006,
      "sting": 5007,
      "lift": 5008,
      "secon": 5009,
      "suv": 5010,
      "costu": 5011,
      "exha": 5012,
      "exper": 5013,
      "shed": 5014,
      "shor": 5015,
      "illy": 5016,
      "gear": 5017,
      "mug": 5018,
      "wave": 5019,
      "viol": 5020,
      "ipad": 5021,
      "afterward": 5022,
      "parrot": 5023,
      "procr": 5024,
      "shoulder": 5025,
      "umbre": 5026,
      "naked": 5027,
      "navy": 5028,
      "draft": 5029,
      "compli": 5030,
      "smack": 5031,
      "cleaner": 5032,
      "serving": 5033,
      "interviewing": 5034,
      "hubby": 5035,
      "design": 5036,
      "skate": 5037,
      "sweetest": 5038,
      "passion": 5039,
      "handed": 5040,
      "horrifying": 5041,
      "heartbreaking": 5042,
      "fallen": 5043,
      "burgers": 5044,
      "chris": 5045,
      "streets": 5046,
      "generous": 5047,
      "bothered": 5048,
      "ghosted": 5049,
      "military": 5050,
      "loyalty": 5051,
      "continues": 5052,
      "rushing": 5053,
      "argue": 5054,
      "brownies": 5055,
      "cracked": 5056,
      "repeat": 5057,
      "econom": 5058,
      "dedicated": 5059,
      "channel": 5060,
      "hostel": 5061,
      "independent": 5062,
      "troph": 5063,
      "transportation": 5064,
      "appropriate": 5065,
      "seconds": 5066,
      "procrast": 5067,
      "bble": 5068,
      "boun": 5069,
      "mir": 5070,
      "ome": 5071,
      "pant": 5072,
      "sca": 5073,
      "infor": 5074,
      "insecure": 5075,
      "oured": 5076,
      "ordin": 5077,
      "ism": 5078,
      "states": 5079,
      "whis": 5080,
      "elated": 5081,
      "advis": 5082,
      "sequ": 5083,
      "ustry": 5084,
      "actor": 5085,
      "abusive": 5086,
      "tips": 5087,
      "ceiling": 5088,
      "unities": 5089,
      "joining": 5090,
      "indiv": 5091,
      "industry": 5092,
      "causes": 5093,
      "assist": 5094,
      "discover": 5095,
      "cities": 5096,
      "owning": 5097,
      "essed": 5098,
      "ignor": 5099,
      "quiz": 5100,
      "meds": 5101,
      "conference": 5102,
      "berry": 5103,
      "bands": 5104,
      "blowing": 5105,
      "standard": 5106,
      "highly": 5107,
      "minor": 5108,
      "desper": 5109,
      "anced": 5110,
      "lightning": 5111,
      "realizing": 5112,
      "snuck": 5113,
      "sundays": 5114,
      "failure": 5115,
      "holds": 5116,
      "unique": 5117,
      "mailbox": 5118,
      "loudly": 5119,
      "competitive": 5120,
      "impression": 5121,
      "climb": 5122,
      "occur": 5123,
      "installed": 5124,
      "sharks": 5125,
      "racing": 5126,
      "racco": 5127,
      "nails": 5128,
      "medication": 5129,
      "carrying": 5130,
      "stubborn": 5131,
      "totaled": 5132,
      "chihua": 5133,
      "dedication": 5134,
      "episode": 5135,
      "participate": 5136,
      "pumpkin": 5137,
      "squirrel": 5138,
      "alternative": 5139,
      "language": 5140,
      "repaired": 5141,
      "ingredients": 5142,
      "individ": 5143,
      "34": 5144,
      "600": 5145,
      "ego": 5146,
      "hig": 5147,
      "jan": 5148,
      "oon": 5149,
      "wrec": 5150,
      "tha": 5151,
      "tomato": 5152,
      "arc": 5153,
      "aret": 5154,
      "sue": 5155,
      "fees": 5156,
      "loaf": 5157,
      "grace": 5158,
      "goodb": 5159,
      "dislike": 5160,
      "raising": 5161,
      "perspec": 5162,
      "surely": 5163,
      "excitement": 5164,
      "kiddos": 5165,
      "owners": 5166,
      "selfish": 5167,
      "pect": 5168,
      "brakes": 5169,
      "max": 5170,
      "decades": 5171,
      "classroom": 5172,
      "earned": 5173,
      "versal": 5174,
      "matches": 5175,
      "ankle": 5176,
      "solve": 5177,
      "ahh": 5178,
      "musical": 5179,
      "smaller": 5180,
      "universal": 5181,
      "cruel": 5182,
      "tires": 5183,
      "ferr": 5184,
      "wheels": 5185,
      "strangers": 5186,
      "improving": 5187,
      "pleasantly": 5188,
      "preparation": 5189,
      "england": 5190,
      "copy": 5191,
      "recognize": 5192,
      "entertain": 5193,
      "mosquitos": 5194,
      "james": 5195,
      "trailer": 5196,
      "blanket": 5197,
      "target": 5198,
      "settled": 5199,
      "psychology": 5200,
      "spread": 5201,
      "hassle": 5202,
      "exhaust": 5203,
      "highest": 5204,
      "wrecking": 5205,
      "1st": 5206,
      "ax": 5207,
      "cough": 5208,
      "lor": 5209,
      "nies": 5210,
      "pas": 5211,
      "phas": 5212,
      "pity": 5213,
      "rings": 5214,
      "thus": 5215,
      "inch": 5216,
      "towel": 5217,
      "removed": 5218,
      "reschedule": 5219,
      "edom": 5220,
      "asia": 5221,
      "oring": 5222,
      "behold": 5223,
      "ids": 5224,
      "forgetting": 5225,
      "address": 5226,
      "domin": 5227,
      "weak": 5228,
      "tim": 5229,
      "worn": 5230,
      "cans": 5231,
      "artment": 5232,
      "happiest": 5233,
      "plumber": 5234,
      "appartment": 5235,
      "backpack": 5236,
      "harvard": 5237,
      "homemade": 5238,
      "spag": 5239,
      "spill": 5240,
      "foster": 5241,
      "ideas": 5242,
      "stops": 5243,
      "household": 5244,
      "tribut": 5245,
      "contacted": 5246,
      "finds": 5247,
      "embarrased": 5248,
      "fortune": 5249,
      "sweating": 5250,
      "craig": 5251,
      "trees": 5252,
      "curren": 5253,
      "rainy": 5254,
      "apri": 5255,
      "freedom": 5256,
      "ggles": 5257,
      "sibling": 5258,
      "lawyer": 5259,
      "ahhh": 5260,
      "uniform": 5261,
      "smells": 5262,
      "awwww": 5263,
      "possibility": 5264,
      "dressing": 5265,
      "robber": 5266,
      "named": 5267,
      "distant": 5268,
      "thrift": 5269,
      "directly": 5270,
      "hype": 5271,
      "techn": 5272,
      "correctly": 5273,
      "repairs": 5274,
      "draw": 5275,
      "release": 5276,
      "malfunction": 5277,
      "tempor": 5278,
      "website": 5279,
      "channels": 5280,
      "betray": 5281,
      "impact": 5282,
      "resolved": 5283,
      "announced": 5284,
      "bittersweet": 5285,
      "fruit": 5286,
      "predic": 5287,
      "democr": 5288,
      "informed": 5289,
      "6th": 5290,
      "95": 5291,
      "austr": 5292,
      "cpa": 5293,
      "eh": 5294,
      "eval": 5295,
      "lers": 5296,
      "ng": 5297,
      "pc": 5298,
      "pm": 5299,
      "pto": 5300,
      "rink": 5301,
      "racking": 5302,
      "infect": 5303,
      "toes": 5304,
      "encour": 5305,
      "encourage": 5306,
      "respec": 5307,
      "represent": 5308,
      "rehab": 5309,
      "ota": 5310,
      "washer": 5311,
      "staf": 5312,
      "hectic": 5313,
      "iding": 5314,
      "elses": 5315,
      "dom": 5316,
      "neice": 5317,
      "actors": 5318,
      "goss": 5319,
      "covers": 5320,
      "upstairs": 5321,
      "workplace": 5322,
      "happily": 5323,
      "anyways": 5324,
      "jogging": 5325,
      "plates": 5326,
      "fig": 5327,
      "whoever": 5328,
      "dio": 5329,
      "forest": 5330,
      "lonesome": 5331,
      "embarassing": 5332,
      "ums": 5333,
      "wolf": 5334,
      "puts": 5335,
      "dried": 5336,
      "anger": 5337,
      "marketing": 5338,
      "steam": 5339,
      "flown": 5340,
      "headache": 5341,
      "attending": 5342,
      "passes": 5343,
      "intention": 5344,
      "countries": 5345,
      "chargers": 5346,
      "presented": 5347,
      "burst": 5348,
      "rolled": 5349,
      "warri": 5350,
      "texted": 5351,
      "shortly": 5352,
      "adoption": 5353,
      "searching": 5354,
      "celebration": 5355,
      "object": 5356,
      "hurricanes": 5357,
      "vomiting": 5358,
      "porsche": 5359,
      "ercials": 5360,
      "judg": 5361,
      "circle": 5362,
      "bunnies": 5363,
      "ligent": 5364,
      "lung": 5365,
      "toddlers": 5366,
      "transit": 5367,
      "overwhelmed": 5368,
      "korea": 5369,
      "convince": 5370,
      "flirting": 5371,
      "introduced": 5372,
      "compassionate": 5373,
      "cigaret": 5374,
      "capable": 5375,
      "mutual": 5376,
      "adventure": 5377,
      "errands": 5378,
      "intimid": 5379,
      "aisle": 5380,
      "montreal": 5381,
      "umbrella": 5382,
      "austral": 5383,
      "evaluation": 5384,
      "boom": 5385,
      "cate": 5386,
      "corr": 5387,
      "nn": 5388,
      "nug": 5389,
      "opt": 5390,
      "slice": 5391,
      "slap": 5392,
      "zen": 5393,
      "injury": 5394,
      "asp": 5395,
      "assured": 5396,
      "arant": 5397,
      "solo": 5398,
      "youre": 5399,
      "beers": 5400,
      "stable": 5401,
      "whil": 5402,
      "owl": 5403,
      "eter": 5404,
      "lip": 5405,
      "button": 5406,
      "lover": 5407,
      "consc": 5408,
      "comment": 5409,
      "comics": 5410,
      "offs": 5411,
      "vibes": 5412,
      "ners": 5413,
      "foreign": 5414,
      "brut": 5415,
      "ceremon": 5416,
      "rub": 5417,
      "opens": 5418,
      "rooms": 5419,
      "cutest": 5420,
      "passionate": 5421,
      "drew": 5422,
      "horrified": 5423,
      "intel": 5424,
      "rains": 5425,
      "camper": 5426,
      "mature": 5427,
      "burden": 5428,
      "boxing": 5429,
      "smel": 5430,
      "salary": 5431,
      "keyboard": 5432,
      "destination": 5433,
      "costs": 5434,
      "scratching": 5435,
      "knocking": 5436,
      "complaining": 5437,
      "lawnmower": 5438,
      "grandfathers": 5439,
      "evidence": 5440,
      "jerks": 5441,
      "sticky": 5442,
      "acceptance": 5443,
      "investment": 5444,
      "organization": 5445,
      "propose": 5446,
      "loaded": 5447,
      "instructions": 5448,
      "shifts": 5449,
      "hundreds": 5450,
      "services": 5451,
      "cinem": 5452,
      "biology": 5453,
      "typically": 5454,
      "discipline": 5455,
      "toppings": 5456,
      "compliment": 5457,
      "chihuahua": 5458,
      "spaghet": 5459,
      "corrupt": 5460,
      "conscious": 5461,
      "ceremony": 5462,
      "5k": 5463,
      "bicy": 5464,
      "eed": 5465,
      "ethe": 5466,
      "fif": 5467,
      "twin": 5468,
      "ured": 5469,
      "oni": 5470,
      "tore": 5471,
      "returns": 5472,
      "repor": 5473,
      "hah": 5474,
      "begging": 5475,
      "stare": 5476,
      "lean": 5477,
      "rito": 5478,
      "ooked": 5479,
      "feat": 5480,
      "lob": 5481,
      "fulfilling": 5482,
      "prevent": 5483,
      "arts": 5484,
      "carni": 5485,
      "carbs": 5486,
      "yearbook": 5487,
      "shine": 5488,
      "mud": 5489,
      "recall": 5490,
      "bars": 5491,
      "devil": 5492,
      "devastating": 5493,
      "paw": 5494,
      "pathetic": 5495,
      "awake": 5496,
      "visits": 5497,
      "sweethe": 5498,
      "roomate": 5499,
      "attemp": 5500,
      "reno": 5501,
      "shaken": 5502,
      "10k": 5503,
      "10th": 5504,
      "painted": 5505,
      "checkout": 5506,
      "presenting": 5507,
      "burrito": 5508,
      "sia": 5509,
      "sunny": 5510,
      "reception": 5511,
      "threat": 5512,
      "rented": 5513,
      "difficul": 5514,
      "struck": 5515,
      "weights": 5516,
      "projects": 5517,
      "stephen": 5518,
      "practically": 5519,
      "potential": 5520,
      "dieting": 5521,
      "added": 5522,
      "humble": 5523,
      "bullied": 5524,
      "acceptable": 5525,
      "performed": 5526,
      "investig": 5527,
      "behaved": 5528,
      "achieved": 5529,
      "opportunities": 5530,
      "eggplant": 5531,
      "productive": 5532,
      "skipped": 5533,
      "kicking": 5534,
      "shadow": 5535,
      "extension": 5536,
      "walls": 5537,
      "points": 5538,
      "soooo": 5539,
      "companion": 5540,
      "suffering": 5541,
      "pepperoni": 5542,
      "rooting": 5543,
      "traumatic": 5544,
      "dessert": 5545,
      "reservations": 5546,
      "procrastin": 5547,
      "miracle": 5548,
      "ferrari": 5549,
      "phase": 5550,
      "craigsl": 5551,
      "democrats": 5552,
      "gossip": 5553,
      "spaghetti": 5554,
      "carnival": 5555,
      "23": 5556,
      "ave": 5557,
      "bay": 5558,
      "civ": 5559,
      "dall": 5560,
      "fans": 5561,
      "lined": 5562,
      "mirr": 5563,
      "mbled": 5564,
      "nite": 5565,
      "nine": 5566,
      "nach": 5567,
      "phar": 5568,
      "snap": 5569,
      "tit": 5570,
      "xbox": 5571,
      "thy": 5572,
      "insul": 5573,
      "repay": 5574,
      "relig": 5575,
      "ists": 5576,
      "arily": 5577,
      "beef": 5578,
      "ston": 5579,
      "oooh": 5580,
      "ami": 5581,
      "outfit": 5582,
      "lim": 5583,
      "neur": 5584,
      "sey": 5585,
      "tied": 5586,
      "iry": 5587,
      "irresponsible": 5588,
      "moder": 5589,
      "coy": 5590,
      "anta": 5591,
      "exchange": 5592,
      "console": 5593,
      "unken": 5594,
      "joking": 5595,
      "raw": 5596,
      "lasts": 5597,
      "surround": 5598,
      "peoples": 5599,
      "forec": 5600,
      "pole": 5601,
      "scen": 5602,
      "dig": 5603,
      "recipes": 5604,
      "essent": 5605,
      "mansion": 5606,
      "downtown": 5607,
      "payed": 5608,
      "cture": 5609,
      "biting": 5610,
      "compare": 5611,
      "publ": 5612,
      "puzz": 5613,
      "understands": 5614,
      "hug": 5615,
      "trau": 5616,
      "sleeps": 5617,
      "closest": 5618,
      "healthier": 5619,
      "dropping": 5620,
      "slack": 5621,
      "charging": 5622,
      "walks": 5623,
      "miami": 5624,
      "cooks": 5625,
      "photograph": 5626,
      "juice": 5627,
      "effor": 5628,
      "cedes": 5629,
      "kittens": 5630,
      "battery": 5631,
      "elev": 5632,
      "leader": 5633,
      "refuses": 5634,
      "avoided": 5635,
      "further": 5636,
      "sharp": 5637,
      "fantasy": 5638,
      "rewarded": 5639,
      "loads": 5640,
      "mercedes": 5641,
      "allergy": 5642,
      "transplant": 5643,
      "bungee": 5644,
      "macs": 5645,
      "belonged": 5646,
      "included": 5647,
      "meaningful": 5648,
      "massive": 5649,
      "cockroach": 5650,
      "reminiscing": 5651,
      "eagerly": 5652,
      "japanese": 5653,
      "betrayed": 5654,
      "escape": 5655,
      "reflect": 5656,
      "candidate": 5657,
      "vegetables": 5658,
      "slightly": 5659,
      "breeze": 5660,
      "disturbing": 5661,
      "saddened": 5662,
      "individual": 5663,
      "goodbye": 5664,
      "currency": 5665,
      "craigslist": 5666,
      "dallas": 5667,
      "pharmac": 5668,
      "blocked": 5669,
      "cd": 5670,
      "gall": 5671,
      "gang": 5672,
      "iate": 5673,
      "jel": 5674,
      "lou": 5675,
      "muse": 5676,
      "pac": 5677,
      "ron": 5678,
      "sake": 5679,
      "tag": 5680,
      "uk": 5681,
      "yall": 5682,
      "anny": 5683,
      "rem": 5684,
      "refri": 5685,
      "ording": 5686,
      "orange": 5687,
      "island": 5688,
      "ghter": 5689,
      "outdoors": 5690,
      "weed": 5691,
      "weap": 5692,
      "noble": 5693,
      "trapped": 5694,
      "upside": 5695,
      "exist": 5696,
      "ously": 5697,
      "preschool": 5698,
      "consist": 5699,
      "artist": 5700,
      "ung": 5701,
      "unfortun": 5702,
      "cara": 5703,
      "carol": 5704,
      "romantic": 5705,
      "illo": 5706,
      "surreal": 5707,
      "greatly": 5708,
      "useful": 5709,
      "spain": 5710,
      "spooked": 5711,
      "overcharged": 5712,
      "stocked": 5713,
      "scot": 5714,
      "diam": 5715,
      "tless": 5716,
      "famous": 5717,
      "parano": 5718,
      "annoys": 5719,
      "maid": 5720,
      "dairy": 5721,
      "momma": 5722,
      "clock": 5723,
      "clogged": 5724,
      "cling": 5725,
      "dram": 5726,
      "este": 5727,
      "gerator": 5728,
      "breast": 5729,
      "crete": 5730,
      "trap": 5731,
      "ief": 5732,
      "ps4": 5733,
      "asks": 5734,
      "chosen": 5735,
      "freezer": 5736,
      "trainer": 5737,
      "phob": 5738,
      "apartments": 5739,
      "bumper": 5740,
      "mailman": 5741,
      "italy": 5742,
      "tub": 5743,
      "command": 5744,
      "competent": 5745,
      "author": 5746,
      "patio": 5747,
      "disneyworld": 5748,
      "figures": 5749,
      "secretly": 5750,
      "humid": 5751,
      "bully": 5752,
      "humanity": 5753,
      "racist": 5754,
      "swimsuit": 5755,
      "popcorn": 5756,
      "pleasure": 5757,
      "conversations": 5758,
      "diagnosis": 5759,
      "proposal": 5760,
      "pitbull": 5761,
      "brilli": 5762,
      "ugly": 5763,
      "susp": 5764,
      "jackpot": 5765,
      "bbq": 5766,
      "flirt": 5767,
      "blocking": 5768,
      "surprisingly": 5769,
      "escaped": 5770,
      "falcons": 5771,
      "challenges": 5772,
      "effects": 5773,
      "dorm": 5774,
      "twenty": 5775,
      "polite": 5776,
      "tuna": 5777,
      "unbelievable": 5778,
      "perspective": 5779,
      "australia": 5780,
      "options": 5781,
      "whilst": 5782,
      "bicycle": 5783,
      "refrigerator": 5784,
      "carolina": 5785,
      "paranoid": 5786,
      "brilliant": 5787,
      "bits": 5788,
      "backing": 5789,
      "eper": 5790,
      "gies": 5791,
      "honey": 5792,
      "ib": 5793,
      "ik": 5794,
      "ium": 5795,
      "lemon": 5796,
      "mowing": 5797,
      "nel": 5798,
      "oper": 5799,
      "ral": 5800,
      "sor": 5801,
      "session": 5802,
      "tank": 5803,
      "intru": 5804,
      "inspect": 5805,
      "reme": 5806,
      "rever": 5807,
      "agon": 5808,
      "isted": 5809,
      "ched": 5810,
      "chunk": 5811,
      "icle": 5812,
      "seek": 5813,
      "feb": 5814,
      "terms": 5815,
      "furi": 5816,
      "grump": 5817,
      "contribut": 5818,
      "deck": 5819,
      "unnecessary": 5820,
      "caut": 5821,
      "guide": 5822,
      "appli": 5823,
      "disappear": 5824,
      "shred": 5825,
      "comb": 5826,
      "perman": 5827,
      "makeup": 5828,
      "boil": 5829,
      "spin": 5830,
      "spaces": 5831,
      "scene": 5832,
      "queen": 5833,
      "turbul": 5834,
      "driven": 5835,
      "crab": 5836,
      "nause": 5837,
      "drunken": 5838,
      "collection": 5839,
      "scariest": 5840,
      "creative": 5841,
      "enjoyable": 5842,
      "flush": 5843,
      "sleepover": 5844,
      "treating": 5845,
      "ulture": 5846,
      "pizzas": 5847,
      "ansion": 5848,
      "choked": 5849,
      "licking": 5850,
      "expansion": 5851,
      "masters": 5852,
      "burnt": 5853,
      "halfway": 5854,
      "beaten": 5855,
      "30th": 5856,
      "mainten": 5857,
      "bats": 5858,
      "batter": 5859,
      "signs": 5860,
      "continued": 5861,
      "funds": 5862,
      "humans": 5863,
      "deeply": 5864,
      "instin": 5865,
      "feedback": 5866,
      "natur": 5867,
      "organic": 5868,
      "improvement": 5869,
      "kissing": 5870,
      "skinny": 5871,
      "politic": 5872,
      "aggravated": 5873,
      "originally": 5874,
      "explore": 5875,
      "renew": 5876,
      "renewed": 5877,
      "transferred": 5878,
      "swerve": 5879,
      "favour": 5880,
      "iguana": 5881,
      "branch": 5882,
      "repeatedly": 5883,
      "trophy": 5884,
      "pastor": 5885,
      "warriors": 5886,
      "mirror": 5887,
      "trauma": 5888,
      "intruder": 5889,
      "-)": 5890,
      "250": 5891,
      "5th": 5892,
      "cti": 5893,
      "cil": 5894,
      "cies": 5895,
      "dat": 5896,
      "dates": 5897,
      "kim": 5898,
      "mama": 5899,
      "nab": 5900,
      "nood": 5901,
      "pse": 5902,
      "pine": 5903,
      "page": 5904,
      "punk": 5905,
      "pilot": 5906,
      "poured": 5907,
      "rally": 5908,
      "tab": 5909,
      "tack": 5910,
      "wrest": 5911,
      "zing": 5912,
      "zzy": 5913,
      "thirty": 5914,
      "ints": 5915,
      "insis": 5916,
      "infected": 5917,
      "tow": 5918,
      "rex": 5919,
      "remor": 5920,
      "agna": 5921,
      "agile": 5922,
      "agging": 5923,
      "eman": 5924,
      "ishes": 5925,
      "sitive": 5926,
      "aries": 5927,
      "ario": 5928,
      "vey": 5929,
      "ooo": 5930,
      "outdoor": 5931,
      "neath": 5932,
      "pest": 5933,
      "hop": 5934,
      "goin": 5935,
      "justice": 5936,
      "conce": 5937,
      "concrete": 5938,
      "unlocked": 5939,
      "carried": 5940,
      "carriage": 5941,
      "display": 5942,
      "disrespectful": 5943,
      "greet": 5944,
      "percent": 5945,
      "bodies": 5946,
      "boston": 5947,
      "overslept": 5948,
      "sadness": 5949,
      "posed": 5950,
      "pops": 5951,
      "dia": 5952,
      "housework": 5953,
      "needing": 5954,
      "needless": 5955,
      "chess": 5956,
      "chewed": 5957,
      "kindness": 5958,
      "brit": 5959,
      "contain": 5960,
      "woah": 5961,
      "theirs": 5962,
      "underneath": 5963,
      "crank": 5964,
      "mommy": 5965,
      "suppl": 5966,
      "hahahaha": 5967,
      "estate": 5968,
      "classmate": 5969,
      "promising": 5970,
      "memorable": 5971,
      "horn": 5972,
      "healed": 5973,
      "basis": 5974,
      "genet": 5975,
      "coverage": 5976,
      "musician": 5977,
      "werent": 5978,
      "struction": 5979,
      "valid": 5980,
      "italian": 5981,
      "smelling": 5982,
      "allows": 5983,
      "commercials": 5984,
      "costco": 5985,
      "successfully": 5986,
      "increase": 5987,
      "satisfying": 5988,
      "panama": 5989,
      "pancreat": 5990,
      "crypto": 5991,
      "gunshots": 5992,
      "rushed": 5993,
      "faced": 5994,
      "connection": 5995,
      "therapist": 5996,
      "milestone": 5997,
      "transmission": 5998,
      "drawing": 5999,
      "hidden": 6000,
      "occasionally": 6001,
      "sweaty": 6002,
      "lasagna": 6003,
      "gathering": 6004,
      "creatures": 6005,
      "butterflies": 6006,
      "wishes": 6007,
      "blessings": 6008,
      "sticking": 6009,
      "declined": 6010,
      "policy": 6011,
      "pyrex": 6012,
      "vitam": 6013,
      "counselor": 6014,
      "cereal": 6015,
      "source": 6016,
      "treasure": 6017,
      "crisis": 6018,
      "intimidating": 6019,
      "scenario": 6020,
      "gallon": 6021,
      "caramel": 6022,
      "grumpy": 6023,
      "turbulence": 6024,
      "instinct": 6025,
      "remorse": 6026,
      "cranky": 6027,
      "pancreatitis": 6028,
      "cents": 6029,
      "culture": 6030,
      "fash": 6031,
      "gie": 6032,
      "hates": 6033,
      "hiring": 6034,
      "mush": 6035,
      "olive": 6036,
      "pier": 6037,
      "rates": 6038,
      "rural": 6039,
      "sac": 6040,
      "tan": 6041,
      "tum": 6042,
      "zok": 6043,
      "zom": 6044,
      "usion": 6045,
      "entit": 6046,
      "agues": 6047,
      "hammer": 6048,
      "behave": 6049,
      "beans": 6050,
      "adn": 6051,
      "wire": 6052,
      "dove": 6053,
      "icles": 6054,
      "icals": 6055,
      "termin": 6056,
      "timing": 6057,
      "trunk": 6058,
      "aston": 6059,
      "herbs": 6060,
      "gots": 6061,
      "concent": 6062,
      "consequ": 6063,
      "newer": 6064,
      "newsp": 6065,
      "plu": 6066,
      "affair": 6067,
      "cafe": 6068,
      "backs": 6069,
      "beta": 6070,
      "spook": 6071,
      "waiter": 6072,
      "someones": 6073,
      "quilt": 6074,
      "prove": 6075,
      "lifestyle": 6076,
      "jealousy": 6077,
      "tap": 6078,
      "drowned": 6079,
      "colleagues": 6080,
      "puke": 6081,
      "realistic": 6082,
      "craz": 6083,
      "doorstep": 6084,
      "attended": 6085,
      "docile": 6086,
      "spends": 6087,
      "courses": 6088,
      "slower": 6089,
      "strzok": 6090,
      "dented": 6091,
      "ducks": 6092,
      "beauty": 6093,
      "former": 6094,
      "buddies": 6095,
      "autom": 6096,
      "counts": 6097,
      "arriving": 6098,
      "iana": 6099,
      "touching": 6100,
      "sensitive": 6101,
      "ggling": 6102,
      "washed": 6103,
      "millen": 6104,
      "answering": 6105,
      "longest": 6106,
      "crowds": 6107,
      "maggots": 6108,
      "hamburger": 6109,
      "officially": 6110,
      "assumed": 6111,
      "extended": 6112,
      "admitted": 6113,
      "humiliating": 6114,
      "answered": 6115,
      "thunderstorms": 6116,
      "knees": 6117,
      "cockroaches": 6118,
      "recognition": 6119,
      "route": 6120,
      "chainsaw": 6121,
      "chips": 6122,
      "punched": 6123,
      "yummy": 6124,
      "autoimmune": 6125,
      "traumat": 6126,
      "false": 6127,
      "challenging": 6128,
      "counseling": 6129,
      "strawberry": 6130,
      "doughnuts": 6131,
      "shrimp": 6132,
      "raccoon": 6133,
      "april": 6134,
      "infection": 6135,
      "brutal": 6136,
      "essentials": 6137,
      "photographs": 6138,
      "efforts": 6139,
      "elevator": 6140,
      "naturally": 6141,
      "kimchi": 6142,
      "fashion": 6143,
      "zomb": 6144,
      "newspaper": 6145,
      "airl": 6146,
      "ckets": 6147,
      "dim": 6148,
      "hn": 6149,
      "iu": 6150,
      "jar": 6151,
      "kn": 6152,
      "lat": 6153,
      "oof": 6154,
      "ods": 6155,
      "olives": 6156,
      "pin": 6157,
      "raged": 6158,
      "swell": 6159,
      "sides": 6160,
      "zone": 6161,
      "error": 6162,
      "atl": 6163,
      "inappropriate": 6164,
      "enraged": 6165,
      "retake": 6166,
      "refer": 6167,
      "eding": 6168,
      "alge": 6169,
      "veland": 6170,
      "lex": 6171,
      "ams": 6172,
      "among": 6173,
      "dod": 6174,
      "newest": 6175,
      "weigh": 6176,
      "ppy": 6177,
      "fears": 6178,
      "fume": 6179,
      "hoard": 6180,
      "los": 6181,
      "tracking": 6182,
      "exotic": 6183,
      "grud": 6184,
      "preseason": 6185,
      "construction": 6186,
      "pra": 6187,
      "unfaithful": 6188,
      "affe": 6189,
      "cky": 6190,
      "gum": 6191,
      "welling": 6192,
      "dissa": 6193,
      "geor": 6194,
      "harsh": 6195,
      "surprises": 6196,
      "scu": 6197,
      "buzz": 6198,
      "jeep": 6199,
      "bark": 6200,
      "bru": 6201,
      "carefree": 6202,
      "devoted": 6203,
      "cring": 6204,
      "cleveland": 6205,
      "naught": 6206,
      "marvel": 6207,
      "cooler": 6208,
      "partying": 6209,
      "istics": 6210,
      "winner": 6211,
      "singer": 6212,
      "interviewer": 6213,
      "hugged": 6214,
      "mini": 6215,
      "dealt": 6216,
      "periods": 6217,
      "intu": 6218,
      "curb": 6219,
      "delight": 6220,
      "slapped": 6221,
      "ggies": 6222,
      "jection": 6223,
      "congratulation": 6224,
      "burning": 6225,
      "topilot": 6226,
      "struggles": 6227,
      "juggle": 6228,
      "screw": 6229,
      "hunt": 6230,
      "texts": 6231,
      "receiving": 6232,
      "autopilot": 6233,
      "grows": 6234,
      "ivy": 6235,
      "killer": 6236,
      "degrees": 6237,
      "slip": 6238,
      "lences": 6239,
      "arguing": 6240,
      "planted": 6241,
      "taxi": 6242,
      "divorced": 6243,
      "protein": 6244,
      "suprise": 6245,
      "assuming": 6246,
      "insanely": 6247,
      "oddly": 6248,
      "maternity": 6249,
      "chemicals": 6250,
      "banana": 6251,
      "suffer": 6252,
      "snee": 6253,
      "panicked": 6254,
      "convenience": 6255,
      "communication": 6256,
      "requested": 6257,
      "equip": 6258,
      "condolences": 6259,
      "submitted": 6260,
      "torian": 6261,
      "replacement": 6262,
      "guests": 6263,
      "eyed": 6264,
      "assignment": 6265,
      "scription": 6266,
      "christian": 6267,
      "staff": 6268,
      "transition": 6269,
      "smelly": 6270,
      "sweetheart": 6271,
      "nachos": 6272,
      "coyote": 6273,
      "unfortunat": 6274,
      "inspection": 6275,
      "furiating": 6276,
      "batteries": 6277,
      "sacri": 6278,
      "entitled": 6279,
      "spooky": 6280,
      "algebra": 6281,
      "naughty": 6282,
      "26": 6283,
      "29": 6284,
      "65": 6285,
      "99": 6286,
      "awoke": 6287,
      "drain": 6288,
      "ew": 6289,
      "eff": 6290,
      "fid": 6291,
      "nb": 6292,
      "nal": 6293,
      "num": 6294,
      "phis": 6295,
      "ull": 6296,
      "wand": 6297,
      "zu": 6298,
      "tote": 6299,
      "resent": 6300,
      "resist": 6301,
      "rejection": 6302,
      "aside": 6303,
      "meg": 6304,
      "iss": 6305,
      "ista": 6306,
      "armad": 6307,
      "soo": 6308,
      "stit": 6309,
      "forced": 6310,
      "chu": 6311,
      "keeper": 6312,
      "icient": 6313,
      "acy": 6314,
      "accounting": 6315,
      "fuel": 6316,
      "irs": 6317,
      "lore": 6318,
      "tron": 6319,
      "carib": 6320,
      "guarant": 6321,
      "apples": 6322,
      "grey": 6323,
      "gears": 6324,
      "thanked": 6325,
      "polar": 6326,
      "broad": 6327,
      "bubble": 6328,
      "essions": 6329,
      "igning": 6330,
      "miscarriage": 6331,
      "monster": 6332,
      "monitor": 6333,
      "barista": 6334,
      "chees": 6335,
      "contacting": 6336,
      "fragile": 6337,
      "tested": 6338,
      "cleared": 6339,
      "collect": 6340,
      "march": 6341,
      "decade": 6342,
      "wrist": 6343,
      "grandkids": 6344,
      "grandmas": 6345,
      "promises": 6346,
      "earrings": 6347,
      "babysitting": 6348,
      "enjoys": 6349,
      "fled": 6350,
      "mornings": 6351,
      "desire": 6352,
      "calmed": 6353,
      "fathers": 6354,
      "2019": 6355,
      "freeway": 6356,
      "interests": 6357,
      "solution": 6358,
      "reminder": 6359,
      "dug": 6360,
      "warr": 6361,
      "prayed": 6362,
      "compete": 6363,
      "computers": 6364,
      "poorly": 6365,
      "banks": 6366,
      "cuz": 6367,
      "winnings": 6368,
      "scores": 6369,
      "refusing": 6370,
      "dragons": 6371,
      "poker": 6372,
      "statement": 6373,
      "sandwiches": 6374,
      "rotting": 6375,
      "feder": 6376,
      "inspir": 6377,
      "silver": 6378,
      "neglected": 6379,
      "commitment": 6380,
      "crawled": 6381,
      "drawn": 6382,
      "bunny": 6383,
      "browns": 6384,
      "performing": 6385,
      "bbies": 6386,
      "massage": 6387,
      "hallway": 6388,
      "remained": 6389,
      "strike": 6390,
      "jokes": 6391,
      "collap": 6392,
      "poisoning": 6393,
      "communicate": 6394,
      "compassion": 6395,
      "karma": 6396,
      "variety": 6397,
      "claimed": 6398,
      "zipper": 6399,
      "debts": 6400,
      "comedy": 6401,
      "jitsu": 6402,
      "legos": 6403,
      "cartoon": 6404,
      "sneaky": 6405,
      "bracelet": 6406,
      "clinton": 6407,
      "objects": 6408,
      "nuggets": 6409,
      "cinema": 6410,
      "renov": 6411,
      "title": 6412,
      "religious": 6413,
      "pharmacy": 6414,
      "museum": 6415,
      "remote": 6416,
      "esteem": 6417,
      "appliances": 6418,
      "diabet": 6419,
      "equipment": 6420,
      "armadillo": 6421,
      "caribbean": 6422,
      "**": 6423,
      "az": 6424,
      "bd": 6425,
      "dash": 6426,
      "fought": 6427,
      "glo": 6428,
      "guts": 6429,
      "lana": 6430,
      "lamp": 6431,
      "msy": 6432,
      "nick": 6433,
      "pon": 6434,
      "pace": 6435,
      "rash": 6436,
      "tw": 6437,
      "tion": 6438,
      "tapping": 6439,
      "ona": 6440,
      "ators": 6441,
      "inher": 6442,
      "intri": 6443,
      "enger": 6444,
      "retri": 6445,
      "relive": 6446,
      "revol": 6447,
      "refresh": 6448,
      "edic": 6449,
      "entering": 6450,
      "ory": 6451,
      "alter": 6452,
      "allig": 6453,
      "sites": 6454,
      "anded": 6455,
      "wasting": 6456,
      "behaving": 6457,
      "heli": 6458,
      "heir": 6459,
      "outs": 6460,
      "lizard": 6461,
      "uting": 6462,
      "sebas": 6463,
      "robe": 6464,
      "rocks": 6465,
      "novel": 6466,
      "copa": 6467,
      "notified": 6468,
      "shell": 6469,
      "sheets": 6470,
      "print": 6471,
      "joint": 6472,
      "john": 6473,
      "plastic": 6474,
      "yearly": 6475,
      "sail": 6476,
      "ifying": 6477,
      "appe": 6478,
      "appalled": 6479,
      "disagree": 6480,
      "greed": 6481,
      "shout": 6482,
      "raises": 6483,
      "compar": 6484,
      "pers": 6485,
      "ives": 6486,
      "pod": 6487,
      "direc": 6488,
      "digest": 6489,
      "bleeding": 6490,
      "triple": 6491,
      "trials": 6492,
      "lux": 6493,
      "talents": 6494,
      "wardrobe": 6495,
      "sincere": 6496,
      "husbands": 6497,
      "mary": 6498,
      "vacy": 6499,
      "supercopa": 6500,
      "grandson": 6501,
      "create": 6502,
      "bushes": 6503,
      "cuts": 6504,
      "tony": 6505,
      "headaches": 6506,
      "moves": 6507,
      "dining": 6508,
      "sweets": 6509,
      "roads": 6510,
      "curve": 6511,
      "midterm": 6512,
      "privacy": 6513,
      "pulls": 6514,
      "messaging": 6515,
      "ikea": 6516,
      "coolest": 6517,
      "valedic": 6518,
      "auton": 6519,
      "sym": 6520,
      "synd": 6521,
      "swat": 6522,
      "approval": 6523,
      "competing": 6524,
      "candies": 6525,
      "throws": 6526,
      "borrowing": 6527,
      "treatments": 6528,
      "clubs": 6529,
      "arrival": 6530,
      "crushing": 6531,
      "denied": 6532,
      "parenting": 6533,
      "complaint": 6534,
      "chocolates": 6535,
      "quitting": 6536,
      "robot": 6537,
      "increasing": 6538,
      "carefully": 6539,
      "stronger": 6540,
      "braz": 6541,
      "gardening": 6542,
      "sticks": 6543,
      "investing": 6544,
      "hyper": 6545,
      "25th": 6546,
      "regrets": 6547,
      "particularly": 6548,
      "facility": 6549,
      "resour": 6550,
      "copter": 6551,
      "occasions": 6552,
      "instrument": 6553,
      "refunded": 6554,
      "dishwasher": 6555,
      "punished": 6556,
      "introver": 6557,
      "conditioning": 6558,
      "defense": 6559,
      "suspic": 6560,
      "require": 6561,
      "melted": 6562,
      "80s": 6563,
      "mosquitoes": 6564,
      "ketchup": 6565,
      "enemy": 6566,
      "ewww": 6567,
      "introduce": 6568,
      "blankets": 6569,
      "episodes": 6570,
      "karate": 6571,
      "regardless": 6572,
      "fraud": 6573,
      "influence": 6574,
      "influenced": 6575,
      "bragging": 6576,
      "documentary": 6577,
      "casser": 6578,
      "waters": 6579,
      "uncertainty": 6580,
      "shorter": 6581,
      "ignoring": 6582,
      "january": 6583,
      "figuring": 6584,
      "reported": 6585,
      "jello": 6586,
      "louis": 6587,
      "pineapple": 6588,
      "tackle": 6589,
      "consequences": 6590,
      "atlanta": 6591,
      "wellington": 6592,
      "alligator": 6593,
      "helicopter": 6594,
      "heirloo": 6595,
      "sebastian": 6596,
      "sailor": 6597,
      "valedictorian": 6598,
      "350": 6599,
      "75": 6600,
      "afri": 6601,
      "aire": 6602,
      "bone": 6603,
      "bil": 6604,
      "hm": 6605,
      "hook": 6606,
      "ipped": 6607,
      "jiu": 6608,
      "lb": 6609,
      "lion": 6610,
      "lph": 6611,
      "nig": 6612,
      "nanny": 6613,
      "oy": 6614,
      "obed": 6615,
      "oons": 6616,
      "pad": 6617,
      "pts": 6618,
      "rack": 6619,
      "rance": 6620,
      "sang": 6621,
      "tand": 6622,
      "era": 6623,
      "inspec": 6624,
      "inconvenient": 6625,
      "toll": 6626,
      "itly": 6627,
      "ancer": 6628,
      "relu": 6629,
      "remodel": 6630,
      "assoc": 6631,
      "entrance": 6632,
      "leak": 6633,
      "ofeed": 6634,
      "elity": 6635,
      "oop": 6636,
      "adren": 6637,
      "adminis": 6638,
      "willi": 6639,
      "liqu": 6640,
      "neut": 6641,
      "fever": 6642,
      "peel": 6643,
      "hose": 6644,
      "hobbies": 6645,
      "image": 6646,
      "canned": 6647,
      "tras": 6648,
      "conver": 6649,
      "consu": 6650,
      "unner": 6651,
      "unprepared": 6652,
      "unsafe": 6653,
      "unemployed": 6654,
      "unfamiliar": 6655,
      "unaware": 6656,
      "joe": 6657,
      "jog": 6658,
      "weekly": 6659,
      "indic": 6660,
      "indul": 6661,
      "donated": 6662,
      "pless": 6663,
      "gulli": 6664,
      "distre": 6665,
      "perfume": 6666,
      "bom": 6667,
      "jobless": 6668,
      "nicest": 6669,
      "firend": 6670,
      "digging": 6671,
      "bucket": 6672,
      "recru": 6673,
      "paris": 6674,
      "proceed": 6675,
      "jee": 6676,
      "inevit": 6677,
      "playoffs": 6678,
      "daunting": 6679,
      "interstate": 6680,
      "bigfoot": 6681,
      "frust": 6682,
      "ctant": 6683,
      "planet": 6684,
      "blink": 6685,
      "catfish": 6686,
      "marked": 6687,
      "leap": 6688,
      "leaking": 6689,
      "buys": 6690,
      "stein": 6691,
      "created": 6692,
      "balls": 6693,
      "opard": 6694,
      "portion": 6695,
      "sickness": 6696,
      "sickened": 6697,
      "specially": 6698,
      "attacking": 6699,
      "skirt": 6700,
      "lightening": 6701,
      "bathing": 6702,
      "curse": 6703,
      "expense": 6704,
      "pooping": 6705,
      "meetings": 6706,
      "landing": 6707,
      "landsca": 6708,
      "prized": 6709,
      "fails": 6710,
      "pickles": 6711,
      "antsy": 6712,
      "unker": 6713,
      "entirely": 6714,
      "swift": 6715,
      "buildings": 6716,
      "growth": 6717,
      "dresser": 6718,
      "occup": 6719,
      "traveled": 6720,
      "honors": 6721,
      "cases": 6722,
      "cube": 6723,
      "robin": 6724,
      "wheat": 6725,
      "profit": 6726,
      "bikes": 6727,
      "nursed": 6728,
      "saturdays": 6729,
      "emergencies": 6730,
      "flooding": 6731,
      "motivate": 6732,
      "status": 6733,
      "lifted": 6734,
      "resident": 6735,
      "gains": 6736,
      "campus": 6737,
      "official": 6738,
      "leftover": 6739,
      "freakin": 6740,
      "traditions": 6741,
      "frog": 6742,
      "tempt": 6743,
      "activity": 6744,
      "flashlight": 6745,
      "yyyy": 6746,
      "decorated": 6747,
      "thousands": 6748,
      "benefit": 6749,
      "dirtbike": 6750,
      "haters": 6751,
      "clowns": 6752,
      "demanded": 6753,
      "boots": 6754,
      "tearing": 6755,
      "antibi": 6756,
      "sparring": 6757,
      "jamas": 6758,
      "candidates": 6759,
      "diplo": 6760,
      "provider": 6761,
      "possum": 6762,
      "criminal": 6763,
      "costume": 6764,
      "desperate": 6765,
      "eternity": 6766,
      "intelligent": 6767,
      "pacing": 6768,
      "phobia": 6769,
      "remeber": 6770,
      "permanent": 6771,
      "favourite": 6772,
      "popsicles": 6773,
      "supplements": 6774,
      "cryptocurrency": 6775,
      "concentrate": 6776,
      "craziest": 6777,
      "intuition": 6778,
      "lanai": 6779,
      "brazil": 6780,
      "inspected": 6781,
      "reluctant": 6782,
      "ofeedback": 6783,
      "adrenal": 6784,
      "williams": 6785,
      "gullible": 6786,
      "98": 6787,
      "bin": 6788,
      "bent": 6789,
      "baf": 6790,
      "bunker": 6791,
      "cum": 6792,
      "cbd": 6793,
      "dust": 6794,
      "dare": 6795,
      "ece": 6796,
      "fy": 6797,
      "gus": 6798,
      "ghet": 6799,
      "mous": 6800,
      "mice": 6801,
      "nc": 6802,
      "nar": 6803,
      "nike": 6804,
      "sut": 6805,
      "tick": 6806,
      "voted": 6807,
      "zip": 6808,
      "ths": 6809,
      "thou": 6810,
      "thir": 6811,
      "infuriating": 6812,
      "instein": 6813,
      "enthus": 6814,
      "anony": 6815,
      "analy": 6816,
      "redo": 6817,
      "usage": 6818,
      "ordeal": 6819,
      "alfre": 6820,
      "toms": 6821,
      "sober": 6822,
      "belive": 6823,
      "bears": 6824,
      "beaming": 6825,
      "stad": 6826,
      "stars": 6827,
      "stability": 6828,
      "lete": 6829,
      "ripping": 6830,
      "china": 6831,
      "chief": 6832,
      "wii": 6833,
      "ette": 6834,
      "liking": 6835,
      "utter": 6836,
      "sect": 6837,
      "endy": 6838,
      "tiring": 6839,
      "worms": 6840,
      "mob": 6841,
      "coordin": 6842,
      "loser": 6843,
      "tray": 6844,
      "upgrade": 6845,
      "extermin": 6846,
      "confirm": 6847,
      "dece": 6848,
      "unzi": 6849,
      "unemployment": 6850,
      "unacceptable": 6851,
      "cardio": 6852,
      "plot": 6853,
      "apps": 6854,
      "greece": 6855,
      "illegal": 6856,
      "comic": 6857,
      "comments": 6858,
      "permission": 6859,
      "surface": 6860,
      "boats": 6861,
      "fibro": 6862,
      "doggy": 6863,
      "overweight": 6864,
      "overflow": 6865,
      "owns": 6866,
      "scout": 6867,
      "vivid": 6868,
      "hasnt": 6869,
      "bugging": 6870,
      "recy": 6871,
      "paraly": 6872,
      "mistaken": 6873,
      "jeopard": 6874,
      "confess": 6875,
      "bris": 6876,
      "monthly": 6877,
      "gling": 6878,
      "aweful": 6879,
      "frank": 6880,
      "tense": 6881,
      "anticipated": 6882,
      "childish": 6883,
      "cram": 6884,
      "planes": 6885,
      "gamecube": 6886,
      "latest": 6887,
      "deciding": 6888,
      "wrapped": 6889,
      "prompt": 6890,
      "brewer": 6891,
      "ears": 6892,
      "creek": 6893,
      "creating": 6894,
      "minim": 6895,
      "horses": 6896,
      "diner": 6897,
      "passenger": 6898,
      "breakup": 6899,
      "shaved": 6900,
      "reasonable": 6901,
      "cursed": 6902,
      "pains": 6903,
      "freel": 6904,
      "relaxation": 6905,
      "strate": 6906,
      "packages": 6907,
      "larger": 6908,
      "specialist": 6909,
      "messages": 6910,
      "affordable": 6911,
      "warcraft": 6912,
      "salt": 6913,
      "keyed": 6914,
      "symp": 6915,
      "tucked": 6916,
      "candles": 6917,
      "fires": 6918,
      "grounded": 6919,
      "gardens": 6920,
      "chickens": 6921,
      "speaker": 6922,
      "shameful": 6923,
      "hhh": 6924,
      "advanced": 6925,
      "researching": 6926,
      "films": 6927,
      "concern": 6928,
      "concerns": 6929,
      "shelf": 6930,
      "atory": 6931,
      "jumpscares": 6932,
      "statistics": 6933,
      "constant": 6934,
      "allergies": 6935,
      "pricey": 6936,
      "crawl": 6937,
      "heavily": 6938,
      "brief": 6939,
      "dumps": 6940,
      "recovering": 6941,
      "hillary": 6942,
      "reply": 6943,
      "excuses": 6944,
      "60s": 6945,
      "frozen": 6946,
      "tempted": 6947,
      "registered": 6948,
      "shipping": 6949,
      "shield": 6950,
      "hmmm": 6951,
      "decorating": 6952,
      "frequent": 6953,
      "documents": 6954,
      "explode": 6955,
      "washington": 6956,
      "admir": 6957,
      "products": 6958,
      "temperature": 6959,
      "regarding": 6960,
      "castle": 6961,
      "critters": 6962,
      "initial": 6963,
      "snuggle": 6964,
      "grilled": 6965,
      "replacing": 6966,
      "liner": 6967,
      "cartoons": 6968,
      "barefoot": 6969,
      "olympic": 6970,
      "skateboard": 6971,
      "economic": 6972,
      "advise": 6973,
      "exhausted": 6974,
      "technically": 6975,
      "temporary": 6976,
      "lobster": 6977,
      "difficulties": 6978,
      "civic": 6979,
      "weapon": 6980,
      "operation": 6981,
      "cautious": 6982,
      "british": 6983,
      "vitamins": 6984,
      "refreshing": 6985,
      "syndrome": 6986,
      "resources": 6987,
      "casserole": 6988,
      "heirloom": 6989,
      "africa": 6990,
      "tandem": 6991,
      "diploma": 6992,
      "baffled": 6993,
      "ghetto": 6994,
      "enthusi": 6995,
      "alfredo": 6996,
      "stadium": 6997,
      "exterminator": 6998,
      "unzipped": 6999,
      "symptoms": 7000,
      "150": 7001,
      "dun": 7002,
      "dedu": 7003,
      "gin": 7004,
      "gir": 7005,
      "hint": 7006,
      "ius": 7007,
      "jama": 7008,
      "jord": 7009,
      "kart": 7010,
      "kong": 7011,
      "kans": 7012,
      "nour": 7013,
      "pure": 7014,
      "rs": 7015,
      "rats": 7016,
      "shave": 7017,
      "sir": 7018,
      "sive": 7019,
      "tt": 7020,
      "yak": 7021,
      "zel": 7022,
      "thie": 7023,
      "erts": 7024,
      "atches": 7025,
      "inted": 7026,
      "incl": 7027,
      "invent": 7028,
      "incompetent": 7029,
      "topic": 7030,
      "ashes": 7031,
      "orient": 7032,
      "sits": 7033,
      "beaches": 7034,
      "heater": 7035,
      "idk": 7036,
      "ghters": 7037,
      "adem": 7038,
      "ament": 7039,
      "ambul": 7040,
      "wipe": 7041,
      "lict": 7042,
      "wears": 7043,
      "rose": 7044,
      "academ": 7045,
      "llen": 7046,
      "abur": 7047,
      "imony": 7048,
      "getic": 7049,
      "allowing": 7050,
      "core": 7051,
      "logic": 7052,
      "hadnt": 7053,
      "whatabur": 7054,
      "tration": 7055,
      "traged": 7056,
      "trade": 7057,
      "upgrad": 7058,
      "prit": 7059,
      "unhealthy": 7060,
      "unusual": 7061,
      "affected": 7062,
      "disheart": 7063,
      "peru": 7064,
      "lasting": 7065,
      "lasted": 7066,
      "suring": 7067,
      "finance": 7068,
      "ideal": 7069,
      "eping": 7070,
      "poem": 7071,
      "scient": 7072,
      "scale": 7073,
      "vio": 7074,
      "medal": 7075,
      "joys": 7076,
      "shoulders": 7077,
      "jewel": 7078,
      "conflict": 7079,
      "checks": 7080,
      "brad": 7081,
      "lum": 7082,
      "liest": 7083,
      "mustang": 7084,
      "woken": 7085,
      "border": 7086,
      "certified": 7087,
      "ultim": 7088,
      "sets": 7089,
      "anticipate": 7090,
      "testimony": 7091,
      "birthdays": 7092,
      "drowning": 7093,
      "drums": 7094,
      "collecting": 7095,
      "pajamas": 7096,
      "pudd": 7097,
      "supply": 7098,
      "meanwhile": 7099,
      "balloons": 7100,
      "busch": 7101,
      "stret": 7102,
      "streak": 7103,
      "flower": 7104,
      "roomie": 7105,
      "ieved": 7106,
      "according": 7107,
      "skis": 7108,
      "handled": 7109,
      "roadkill": 7110,
      "delay": 7111,
      "licens": 7112,
      "snapped": 7113,
      "fellow": 7114,
      "managers": 7115,
      "midwest": 7116,
      "picky": 7117,
      "grandmothers": 7118,
      "musicians": 7119,
      "deserving": 7120,
      "valent": 7121,
      "salon": 7122,
      "ladder": 7123,
      "tutor": 7124,
      "volley": 7125,
      "clients": 7126,
      "cliff": 7127,
      "boards": 7128,
      "generations": 7129,
      "batman": 7130,
      "speeches": 7131,
      "eleph": 7132,
      "rescues": 7133,
      "wooden": 7134,
      "qualify": 7135,
      "fearful": 7136,
      "presence": 7137,
      "relieve": 7138,
      "leads": 7139,
      "attacks": 7140,
      "spots": 7141,
      "concerts": 7142,
      "hellp": 7143,
      "odds": 7144,
      "kicks": 7145,
      "culprit": 7146,
      "magical": 7147,
      "factory": 7148,
      "facetime": 7149,
      "tournaments": 7150,
      "carts": 7151,
      "drawer": 7152,
      "lungs": 7153,
      "meatloaf": 7154,
      "pointless": 7155,
      "pencil": 7156,
      "toyota": 7157,
      "politics": 7158,
      "requires": 7159,
      "21st": 7160,
      "soulmate": 7161,
      "fondly": 7162,
      "dosnt": 7163,
      "determination": 7164,
      "banging": 7165,
      "additional": 7166,
      "independence": 7167,
      "wisdom": 7168,
      "thorough": 7169,
      "grinds": 7170,
      "grinding": 7171,
      "separated": 7172,
      "murdered": 7173,
      "interrupts": 7174,
      "breathing": 7175,
      "description": 7176,
      "details": 7177,
      "olympics": 7178,
      "reassuring": 7179,
      "experiment": 7180,
      "violin": 7181,
      "smacked": 7182,
      "economics": 7183,
      "intentional": 7184,
      "cigarettes": 7185,
      "neurofeedback": 7186,
      "foreclo": 7187,
      "leadership": 7188,
      "diamond": 7189,
      "shredded": 7190,
      "astonished": 7191,
      "zombie": 7192,
      "airline": 7193,
      "delighted": 7194,
      "autonomy": 7195,
      "administration": 7196,
      "kansas": 7197,
      "nourished": 7198,
      "ambulance": 7199,
      "whataburger": 7200,
      "ultimately": 7201,
      "puddle": 7202,
      "volleyball": 7203,
      "28": 7204,
      "3am": 7205,
      "93": 7206,
      "aun": 7207,
      "bou": 7208,
      "cot": 7209,
      "evacu": 7210,
      "floo": 7211,
      "glu": 7212,
      "jur": 7213,
      "lous": 7214,
      "mild": 7215,
      "mashed": 7216,
      "obs": 7217,
      "pour": 7218,
      "sse": 7219,
      "snot": 7220,
      "slic": 7221,
      "tam": 7222,
      "tension": 7223,
      "vements": 7224,
      "ws": 7225,
      "wra": 7226,
      "wage": 7227,
      "wendy": 7228,
      "onic": 7229,
      "onted": 7230,
      "incorrect": 7231,
      "enroll": 7232,
      "iter": 7233,
      "reliving": 7234,
      "reconnected": 7235,
      "asian": 7236,
      "aspect": 7237,
      "entions": 7238,
      "orle": 7239,
      "agull": 7240,
      "aland": 7241,
      "emption": 7242,
      "soap": 7243,
      "stances": 7244,
      "lele": 7245,
      "idency": 7246,
      "owed": 7247,
      "rified": 7248,
      "chili": 7249,
      "dolph": 7250,
      "wester": 7251,
      "seagull": 7252,
      "roast": 7253,
      "sume": 7254,
      "fuzzy": 7255,
      "abdu": 7256,
      "tipped": 7257,
      "nois": 7258,
      "mode": 7259,
      "coat": 7260,
      "coin": 7261,
      "code": 7262,
      "coping": 7263,
      "cozu": 7264,
      "sheep": 7265,
      "exited": 7266,
      "herd": 7267,
      "elling": 7268,
      "convent": 7269,
      "unpleasant": 7270,
      "unfold": 7271,
      "urge": 7272,
      "india": 7273,
      "assic": 7274,
      "gue": 7275,
      "disability": 7276,
      "useless": 7277,
      "venom": 7278,
      "fighters": 7279,
      "doggie": 7280,
      "offers": 7281,
      "overwatch": 7282,
      "scor": 7283,
      "vig": 7284,
      "vile": 7285,
      "igner": 7286,
      "whipped": 7287,
      "litl": 7288,
      "stumbled": 7289,
      "monkey": 7290,
      "chev": 7291,
      "brat": 7292,
      "bride": 7293,
      "brides": 7294,
      "beings": 7295,
      "redemption": 7296,
      "shoved": 7297,
      "colon": 7298,
      "ulous": 7299,
      "blank": 7300,
      "bites": 7301,
      "ruining": 7302,
      "upsets": 7303,
      "german": 7304,
      "amazingly": 7305,
      "crew": 7306,
      "creatic": 7307,
      "meantime": 7308,
      "ops": 7309,
      "opsy": 7310,
      "fortnite": 7311,
      "hugs": 7312,
      "petrified": 7313,
      "heads": 7314,
      "wondered": 7315,
      "intentions": 7316,
      "sats": 7317,
      "stormed": 7318,
      "charges": 7319,
      "packs": 7320,
      "dental": 7321,
      "solar": 7322,
      "solved": 7323,
      "genius": 7324,
      "sung": 7325,
      "sunshine": 7326,
      "windshield": 7327,
      "steady": 7328,
      "correc": 7329,
      "dreamed": 7330,
      "bump": 7331,
      "warmed": 7332,
      "financing": 7333,
      "smartphone": 7334,
      "darkness": 7335,
      "swallow": 7336,
      "aud": 7337,
      "aug": 7338,
      "clumsy": 7339,
      "ivity": 7340,
      "accomplishments": 7341,
      "fitness": 7342,
      "elections": 7343,
      "zealand": 7344,
      "signal": 7345,
      "pancreatic": 7346,
      "relieving": 7347,
      "ifications": 7348,
      "tablet": 7349,
      "cells": 7350,
      "guns": 7351,
      "bullets": 7352,
      "filed": 7353,
      "install": 7354,
      "peeing": 7355,
      "creeps": 7356,
      "creeped": 7357,
      "yellow": 7358,
      "sixth": 7359,
      "technic": 7360,
      "sprayed": 7361,
      "reunited": 7362,
      "professionally": 7363,
      "regretted": 7364,
      "addicted": 7365,
      "circum": 7366,
      "injuries": 7367,
      "biopsy": 7368,
      "recovery": 7369,
      "brighter": 7370,
      "seattle": 7371,
      "itos": 7372,
      "malnourished": 7373,
      "dryer": 7374,
      "recommended": 7375,
      "contrary": 7376,
      "limited": 7377,
      "sauces": 7378,
      "gigantic": 7379,
      "demanding": 7380,
      "antique": 7381,
      "muscles": 7382,
      "punishment": 7383,
      "frame": 7384,
      "habits": 7385,
      "doomed": 7386,
      "debate": 7387,
      "pillow": 7388,
      "assignments": 7389,
      "discussing": 7390,
      "costumes": 7391,
      "fifa": 7392,
      "stares": 7393,
      "published": 7394,
      "puzzle": 7395,
      "referring": 7396,
      "grudge": 7397,
      "federal": 7398,
      "suspicious": 7399,
      "tragedy": 7400,
      "licensing": 7401,
      "thoroughly": 7402,
      "floored": 7403,
      "jurassic": 7404,
      "orleans": 7405,
      "cozumel": 7406,
      "circumstances": 7407,
      "bass": 7408,
      "bnb": 7409,
      "dc": 7410,
      "dive": 7411,
      "dna": 7412,
      "eth": 7413,
      "ebay": 7414,
      "fab": 7415,
      "fist": 7416,
      "gown": 7417,
      "gender": 7418,
      "hust": 7419,
      "jes": 7420,
      "jsut": 7421,
      "mri": 7422,
      "matt": 7423,
      "nh": 7424,
      "og": 7425,
      "rust": 7426,
      "stoo": 7427,
      "slot": 7428,
      "siz": 7429,
      "smar": 7430,
      "sized": 7431,
      "tay": 7432,
      "tly": 7433,
      "tish": 7434,
      "uke": 7435,
      "uced": 7436,
      "vill": 7437,
      "za": 7438,
      "thign": 7439,
      "inated": 7440,
      "inches": 7441,
      "infant": 7442,
      "ensure": 7443,
      "reall": 7444,
      "ots": 7445,
      "edition": 7446,
      "ashe": 7447,
      "melon": 7448,
      "ornam": 7449,
      "agement": 7450,
      "haw": 7451,
      "artific": 7452,
      "sox": 7453,
      "soaked": 7454,
      "veggies": 7455,
      "stere": 7456,
      "stared": 7457,
      "stig": 7458,
      "owes": 7459,
      "formu": 7460,
      "river": 7461,
      "oooo": 7462,
      "advo": 7463,
      "amster": 7464,
      "outstanding": 7465,
      "esh": 7466,
      "sees": 7467,
      "seven": 7468,
      "rover": 7469,
      "rolet": 7470,
      "ppers": 7471,
      "holes": 7472,
      "immi": 7473,
      "worris": 7474,
      "cod": 7475,
      "trou": 7476,
      "updated": 7477,
      "gotcha": 7478,
      "workforce": 7479,
      "ceo": 7480,
      "congress": 7481,
      "destru": 7482,
      "eked": 7483,
      "disgrace": 7484,
      "shit": 7485,
      "shook": 7486,
      "backwards": 7487,
      "background": 7488,
      "teddy": 7489,
      "whos": 7490,
      "nightgown": 7491,
      "buds": 7492,
      "recliner": 7493,
      "manners": 7494,
      "proof": 7495,
      "proced": 7496,
      "girlfi": 7497,
      "gau": 7498,
      "lathe": 7499,
      "lugg": 7500,
      "maps": 7501,
      "international": 7502,
      "mustard": 7503,
      "embarrass": 7504,
      "disappoint": 7505,
      "ulti": 7506,
      "dripping": 7507,
      "craf": 7508,
      "naw": 7509,
      "ruins": 7510,
      "superior": 7511,
      "views": 7512,
      "grosse": 7513,
      "restar": 7514,
      "traps": 7515,
      "peter": 7516,
      "mins": 7517,
      "accur": 7518,
      "skilled": 7519,
      "footsteps": 7520,
      "watermelon": 7521,
      "2017": 7522,
      "ridden": 7523,
      "seasons": 7524,
      "billion": 7525,
      "athlete": 7526,
      "juicy": 7527,
      "juggling": 7528,
      "warned": 7529,
      "stepmother": 7530,
      "swam": 7531,
      "commend": 7532,
      "beats": 7533,
      "crashing": 7534,
      "scratches": 7535,
      "irritates": 7536,
      "severance": 7537,
      "deny": 7538,
      "offering": 7539,
      "accepting": 7540,
      "crimes": 7541,
      "obama": 7542,
      "spiderman": 7543,
      "bullying": 7544,
      "organizing": 7545,
      "196": 7546,
      "racoon": 7547,
      "avoiding": 7548,
      "medium": 7549,
      "faces": 7550,
      "attitudes": 7551,
      "silent": 7552,
      "deploy": 7553,
      "depending": 7554,
      "loading": 7555,
      "tailg": 7556,
      "grieve": 7557,
      "confronted": 7558,
      "materials": 7559,
      "electron": 7560,
      "gory": 7561,
      "repeating": 7562,
      "freaks": 7563,
      "suspect": 7564,
      "suffered": 7565,
      "melt": 7566,
      "include": 7567,
      "thunderstorm": 7568,
      "tacos": 7569,
      "recognized": 7570,
      "nissan": 7571,
      "hosting": 7572,
      "scolded": 7573,
      "announc": 7574,
      "moldy": 7575,
      "ohhhh": 7576,
      "reflecting": 7577,
      "decline": 7578,
      "policies": 7579,
      "neighbourhood": 7580,
      "various": 7581,
      "equipped": 7582,
      "adjusting": 7583,
      "aaa": 7584,
      "angeles": 7585,
      "russia": 7586,
      "cloudy": 7587,
      "breathe": 7588,
      "assistant": 7589,
      "spilling": 7590,
      "representative": 7591,
      "rubbing": 7592,
      "investigate": 7593,
      "consistently": 7594,
      "politicians": 7595,
      "data": 7596,
      "insisted": 7597,
      "genetic": 7598,
      "traumatizing": 7599,
      "cringe": 7600,
      "warrant": 7601,
      "inspiration": 7602,
      "global": 7603,
      "inherited": 7604,
      "retriever": 7605,
      "director": 7606,
      "introverted": 7607,
      "fruster": 7608,
      "occupied": 7609,
      "temptation": 7610,
      "adrenaline": 7611,
      "mobile": 7612,
      "jewelry": 7613,
      "bouqu": 7614,
      "western": 7615,
      "chevrolet": 7616,
      "jesus": 7617,
      "stoop": 7618,
      "smarter": 7619,
      "taylor": 7620,
      "ukelele": 7621,
      "asheville": 7622,
      "artificial": 7623,
      "formula": 7624,
      "amsterdam": 7625,
      "worrisome": 7626,
      "grossest": 7627,
      "$$": 7628,
      "bart": 7629,
      "fas": 7630,
      "fes": 7631,
      "gad": 7632,
      "gps": 7633,
      "hong": 7634,
      "hints": 7635,
      "iation": 7636,
      "iwas": 7637,
      "iers": 7638,
      "ka": 7639,
      "ku": 7640,
      "kies": 7641,
      "knit": 7642,
      "lam": 7643,
      "link": 7644,
      "lining": 7645,
      "mand": 7646,
      "mask": 7647,
      "nu": 7648,
      "nas": 7649,
      "nagging": 7650,
      "pim": 7651,
      "rag": 7652,
      "sou": 7653,
      "sigh": 7654,
      "ssom": 7655,
      "trol": 7656,
      "uing": 7657,
      "vote": 7658,
      "wagon": 7659,
      "xious": 7660,
      "zes": 7661,
      "thood": 7662,
      "onde": 7663,
      "atar": 7664,
      "atically": 7665,
      "insect": 7666,
      "tos": 7667,
      "toast": 7668,
      "itated": 7669,
      "reve": 7670,
      "remove": 7671,
      "resume": 7672,
      "otle": 7673,
      "org": 7674,
      "ald": 7675,
      "alab": 7676,
      "alum": 7677,
      "myster": 7678,
      "isher": 7679,
      "emotionally": 7680,
      "wasps": 7681,
      "stones": 7682,
      "stunk": 7683,
      "stripped": 7684,
      "chow": 7685,
      "ads": 7686,
      "wifes": 7687,
      "outback": 7688,
      "liver": 7689,
      "neare": 7690,
      "weir": 7691,
      "seats": 7692,
      "suing": 7693,
      "sund": 7694,
      "summ": 7695,
      "acknowledge": 7696,
      "abili": 7697,
      "homer": 7698,
      "tiest": 7699,
      "tiger": 7700,
      "impatient": 7701,
      "noxious": 7702,
      "moist": 7703,
      "covery": 7704,
      "cocon": 7705,
      "coins": 7706,
      "theyre": 7707,
      "canal": 7708,
      "notifying": 7709,
      "tram": 7710,
      "trum": 7711,
      "exhi": 7712,
      "pressed": 7713,
      "unlock": 7714,
      "saves": 7715,
      "assem": 7716,
      "disput": 7717,
      "disorder": 7718,
      "discour": 7719,
      "discovery": 7720,
      "ilad": 7721,
      "commo": 7722,
      "pered": 7723,
      "harvey": 7724,
      "teens": 7725,
      "teary": 7726,
      "venge": 7727,
      "venison": 7728,
      "bold": 7729,
      "excites": 7730,
      "aint": 7731,
      "files": 7732,
      "hardy": 7733,
      "stored": 7734,
      "via": 7735,
      "dios": 7736,
      "ipt": 7737,
      "bleach": 7738,
      "mani": 7739,
      "props": 7740,
      "provid": 7741,
      "pretending": 7742,
      "trial": 7743,
      "triath": 7744,
      "misunderstood": 7745,
      "studies": 7746,
      "studios": 7747,
      "barbe": 7748,
      "aching": 7749,
      "confide": 7750,
      "kindly": 7751,
      "memphis": 7752,
      "brow": 7753,
      "lump": 7754,
      "downloaded": 7755,
      "maker": 7756,
      "gled": 7757,
      "embarrasing": 7758,
      "izon": 7759,
      "tape": 7760,
      "coup": 7761,
      "couth": 7762,
      "ulations": 7763,
      "ulsive": 7764,
      "caregi": 7765,
      "crunch": 7766,
      "blonde": 7767,
      "gameboy": 7768,
      "angri": 7769,
      "angel": 7770,
      "collected": 7771,
      "compens": 7772,
      "supper": 7773,
      "leaked": 7774,
      "grandchild": 7775,
      "ffy": 7776,
      "cleans": 7777,
      "petty": 7778,
      "tongue": 7779,
      "grats": 7780,
      "void": 7781,
      "elsewhere": 7782,
      "passions": 7783,
      "intended": 7784,
      "differently": 7785,
      "strapped": 7786,
      "burgl": 7787,
      "rolling": 7788,
      "trains": 7789,
      "sunscreen": 7790,
      "pickup": 7791,
      "appreciates": 7792,
      "hairstyle": 7793,
      "boxer": 7794,
      "renting": 7795,
      "cooper": 7796,
      "inviting": 7797,
      "stepdad": 7798,
      "possessions": 7799,
      "hiv": 7800,
      "garlic": 7801,
      "deadly": 7802,
      "sync": 7803,
      "ailing": 7804,
      "placing": 7805,
      "quietly": 7806,
      "gymnast": 7807,
      "cups": 7808,
      "subscription": 7809,
      "arrives": 7810,
      "damages": 7811,
      "menu": 7812,
      "searched": 7813,
      "surgeries": 7814,
      "honking": 7815,
      "switched": 7816,
      "speakers": 7817,
      "obnoxious": 7818,
      "presidency": 7819,
      "legally": 7820,
      "2006": 7821,
      "listens": 7822,
      "slick": 7823,
      "bowls": 7824,
      "winters": 7825,
      "strap": 7826,
      "researched": 7827,
      "bullet": 7828,
      "filthy": 7829,
      "funding": 7830,
      "jerry": 7831,
      "dete": 7832,
      "shelters": 7833,
      "improved": 7834,
      "races": 7835,
      "energetic": 7836,
      "writer": 7837,
      "programming": 7838,
      "hydr": 7839,
      "rowave": 7840,
      "london": 7841,
      "lifetime": 7842,
      "honorable": 7843,
      "exception": 7844,
      "levels": 7845,
      "explains": 7846,
      "explained": 7847,
      "tornadoes": 7848,
      "silence": 7849,
      "shootings": 7850,
      "piggy": 7851,
      "production": 7852,
      "gaining": 7853,
      "rattle": 7854,
      "instruments": 7855,
      "skipping": 7856,
      "judging": 7857,
      "questionable": 7858,
      "splurge": 7859,
      "adopting": 7860,
      "conditioner": 7861,
      "housing": 7862,
      "penny": 7863,
      "shakes": 7864,
      "defend": 7865,
      "region": 7866,
      "banking": 7867,
      "salesman": 7868,
      "developed": 7869,
      "necessarily": 7870,
      "cocky": 7871,
      "trading": 7872,
      "cornhole": 7873,
      "chipotle": 7874,
      "terns": 7875,
      "distract": 7876,
      "mowed": 7877,
      "rabbits": 7878,
      "ewwww": 7879,
      "choosing": 7880,
      "blows": 7881,
      "micro": 7882,
      "microwave": 7883,
      "recommendations": 7884,
      "chills": 7885,
      "avengers": 7886,
      "alien": 7887,
      "adventures": 7888,
      "fruits": 7889,
      "bathtub": 7890,
      "locally": 7891,
      "russi": 7892,
      "audience": 7893,
      "interrupting": 7894,
      "ranged": 7895,
      "cuddle": 7896,
      "desperately": 7897,
      "occurred": 7898,
      "tomatoes": 7899,
      "arcade": 7900,
      "exhausting": 7901,
      "technical": 7902,
      "temporarily": 7903,
      "predict": 7904,
      "judgment": 7905,
      "circles": 7906,
      "cigarette": 7907,
      "lipstick": 7908,
      "attempted": 7909,
      "threatened": 7910,
      "commands": 7911,
      "humidity": 7912,
      "spaceship": 7913,
      "maintenance": 7914,
      "noodles": 7915,
      "remorseful": 7916,
      "dodge": 7917,
      "weighing": 7918,
      "praised": 7919,
      "unfortunatley": 7920,
      "diabetes": 7921,
      "louisiana": 7922,
      "neutral": 7923,
      "unnerving": 7924,
      "anonymous": 7925,
      "analyst": 7926,
      "jeopardy": 7927,
      "breweries": 7928,
      "thieves": 7929,
      "aunts": 7930,
      "bridesmaid": 7931,
      "corrected": 7932,
      "stereo": 7933,
      "immigr": 7934,
      "luggage": 7935,
      "ultimate": 7936,
      "pimple": 7937,
      "reveal": 7938,
      "nearest": 7939,
      "coconut": 7940,
      "dispute": 7941,
      "providing": 7942,
      "1k": 7943,
      "27": 7944,
      "31": 7945,
      "awh": 7946,
      "blog": 7947,
      "cad": 7948,
      "danced": 7949,
      "equal": 7950,
      "fus": 7951,
      "fade": 7952,
      "gger": 7953,
      "hut": 7954,
      "hating": 7955,
      "iel": 7956,
      "jon": 7957,
      "jou": 7958,
      "kha": 7959,
      "kry": 7960,
      "kfc": 7961,
      "mend": 7962,
      "nash": 7963,
      "pid": 7964,
      "pow": 7965,
      "scan": 7966,
      "sack": 7967,
      "signing": 7968,
      "uho": 7969,
      "uine": 7970,
      "upper": 7971,
      "vage": 7972,
      "wary": 7973,
      "yale": 7974,
      "erce": 7975,
      "inve": 7976,
      "inte": 7977,
      "toen": 7978,
      "torious": 7979,
      "toler": 7980,
      "ittle": 7981,
      "anked": 7982,
      "reboot": 7983,
      "reconnect": 7984,
      "revenge": 7985,
      "oter": 7986,
      "eds": 7987,
      "assa": 7988,
      "oral": 7989,
      "ories": 7990,
      "empt": 7991,
      "ision": 7992,
      "isure": 7993,
      "hael": 7994,
      "aring": 7995,
      "argent": 7996,
      "sopho": 7997,
      "bele": 7998,
      "begg": 7999,
      "begun": 8000,
      "becky": 8001,
      "heim": 8002,
      "heated": 8003,
      "heating": 8004,
      "heels": 8005,
      "lection": 8006,
      "leisure": 8007,
      "ric": 8008,
      "chir": 8009,
      "chig": 8010,
      "adds": 8011,
      "wiped": 8012,
      "outlook": 8013,
      "outfits": 8014,
      "liber": 8015,
      "weal": 8016,
      "seper": 8017,
      "roster": 8018,
      "roaming": 8019,
      "lled": 8020,
      "tering": 8021,
      "notorious": 8022,
      "iron": 8023,
      "worm": 8024,
      "mock": 8025,
      "moil": 8026,
      "copper": 8027,
      "locks": 8028,
      "sheesh": 8029,
      "trace": 8030,
      "grity": 8031,
      "grrr": 8032,
      "preordered": 8033,
      "confir": 8034,
      "kings": 8035,
      "unlikely": 8036,
      "cargot": 8037,
      "plum": 8038,
      "ples": 8039,
      "assisted": 8040,
      "gulf": 8041,
      "wouldve": 8042,
      "rapes": 8043,
      "permit": 8044,
      "geon": 8045,
      "geons": 8046,
      "illac": 8047,
      "backpacking": 8048,
      "makeover": 8049,
      "usely": 8050,
      "teasing": 8051,
      "mugged": 8052,
      "schoo": 8053,
      "fierce": 8054,
      "prised": 8055,
      "spite": 8056,
      "spaced": 8057,
      "offensive": 8058,
      "overtime": 8059,
      "overboard": 8060,
      "schooling": 8061,
      "epic": 8062,
      "stove": 8063,
      "stopping": 8064,
      "saddest": 8065,
      "popped": 8066,
      "nerd": 8067,
      "dial": 8068,
      "recieved": 8069,
      "familly": 8070,
      "parti": 8071,
      "parach": 8072,
      "gap": 8073,
      "studing": 8074,
      "studio": 8075,
      "barcel": 8076,
      "funnel": 8077,
      "confessed": 8078,
      "brac": 8079,
      "brake": 8080,
      "bridge": 8081,
      "turking": 8082,
      "turmoil": 8083,
      "stals": 8084,
      "underdogs": 8085,
      "crum": 8086,
      "blat": 8087,
      "closes": 8088,
      "cloths": 8089,
      "mmies": 8090,
      "cler": 8091,
      "clar": 8092,
      "stands": 8093,
      "rugrats": 8094,
      "smiling": 8095,
      "wrapping": 8096,
      "earning": 8097,
      "resting": 8098,
      "strep": 8099,
      "meets": 8100,
      "portable": 8101,
      "orders": 8102,
      "rank": 8103,
      "mines": 8104,
      "mighty": 8105,
      "sleepy": 8106,
      "accord": 8107,
      "closely": 8108,
      "calming": 8109,
      "trepid": 8110,
      "teammates": 8111,
      "intend": 8112,
      "realizes": 8113,
      "fasting": 8114,
      "hearted": 8115,
      "bail": 8116,
      "waterpark": 8117,
      "2016": 8118,
      "falls": 8119,
      "freezing": 8120,
      "imagination": 8121,
      "slacking": 8122,
      "slides": 8123,
      "stors": 8124,
      "charger": 8125,
      "poops": 8126,
      "ankles": 8127,
      "michig": 8128,
      "genuine": 8129,
      "receipt": 8130,
      "hairs": 8131,
      "bumps": 8132,
      "structure": 8133,
      "frustration": 8134,
      "invit": 8135,
      "prayer": 8136,
      "swallowed": 8137,
      "diets": 8138,
      "shortcake": 8139,
      "subst": 8140,
      "sorta": 8141,
      "socialize": 8142,
      "fitting": 8143,
      "deaths": 8144,
      "cries": 8145,
      "publi": 8146,
      "chaos": 8147,
      "profusely": 8148,
      "crystal": 8149,
      "namon": 8150,
      "nurses": 8151,
      "cellphone": 8152,
      "facts": 8153,
      "goldie": 8154,
      "instant": 8155,
      "feeding": 8156,
      "jumps": 8157,
      "locker": 8158,
      "odor": 8159,
      "apologizing": 8160,
      "16th": 8161,
      "lifes": 8162,
      "magaz": 8163,
      "risky": 8164,
      "behaviors": 8165,
      "proposing": 8166,
      "accounts": 8167,
      "mileage": 8168,
      "millionaire": 8169,
      "priceless": 8170,
      "machines": 8171,
      "spoiling": 8172,
      "earthqu": 8173,
      "companions": 8174,
      "tricky": 8175,
      "friendships": 8176,
      "turtles": 8177,
      "sneaking": 8178,
      "electricity": 8179,
      "journal": 8180,
      "strict": 8181,
      "chefs": 8182,
      "lanes": 8183,
      "decorate": 8184,
      "jazz": 8185,
      "safer": 8186,
      "cinnamon": 8187,
      "michael": 8188,
      "appears": 8189,
      "resolve": 8190,
      "warehouse": 8191,
      "settling": 8192,
      "cigar": 8193,
      "magician": 8194,
      "boosted": 8195,
      "locate": 8196,
      "development": 8197,
      "typical": 8198,
      "cravings": 8199,
      "woohoo": 8200,
      "comforter": 8201,
      "clinic": 8202,
      "nutr": 8203,
      "samsung": 8204,
      "bounce": 8205,
      "bouncing": 8206,
      "thai": 8207,
      "maxim": 8208,
      "encouraging": 8209,
      "intentionally": 8210,
      "investigation": 8211,
      "procrastinated": 8212,
      "digital": 8213,
      "dramas": 8214,
      "dramatic": 8215,
      "contributing": 8216,
      "greeted": 8217,
      "sacrific": 8218,
      "fidelity": 8219,
      "twitch": 8220,
      "greedy": 8221,
      "luxu": 8222,
      "padre": 8223,
      "associate": 8224,
      "jeez": 8225,
      "coordinated": 8226,
      "deceased": 8227,
      "academic": 8228,
      "valentine": 8229,
      "lousy": 8230,
      "slices": 8231,
      "seagulls": 8232,
      "installing": 8233,
      "bartender": 8234,
      "alabama": 8235,
      "summers": 8236,
      "discouraging": 8237,
      "coupons": 8238,
      "cadillac": 8239,
      "krystals": 8240,
      "nashville": 8241,
      "uhoh": 8242,
      "toenail": 8243,
      "assaul": 8244,
      "sophomore": 8245,
      "barcelona": 8246,
      "michigan": 8247,
      "33": 8248,
      "5000": 8249,
      "aust": 8250,
      "ape": 8251,
      "avel": 8252,
      "bf": 8253,
      "batt": 8254,
      "bicle": 8255,
      "cial": 8256,
      "clicking": 8257,
      "dup": 8258,
      "foul": 8259,
      "fenced": 8260,
      "gag": 8261,
      "gloves": 8262,
      "gamer": 8263,
      "hul": 8264,
      "itors": 8265,
      "jun": 8266,
      "kins": 8267,
      "lma": 8268,
      "mens": 8269,
      "native": 8270,
      "narc": 8271,
      "pipes": 8272,
      "raging": 8273,
      "swo": 8274,
      "skept": 8275,
      "tel": 8276,
      "tte": 8277,
      "tled": 8278,
      "tends": 8279,
      "tshirt": 8280,
      "uu": 8281,
      "vity": 8282,
      "virt": 8283,
      "vows": 8284,
      "wold": 8285,
      "wrap": 8286,
      "yon": 8287,
      "thail": 8288,
      "ertive": 8289,
      "atti": 8290,
      "atmo": 8291,
      "ini": 8292,
      "iner": 8293,
      "infin": 8294,
      "insom": 8295,
      "tout": 8296,
      "enab": 8297,
      "encounter": 8298,
      "enitly": 8299,
      "anas": 8300,
      "angl": 8301,
      "remake": 8302,
      "reput": 8303,
      "republi": 8304,
      "ases": 8305,
      "assurance": 8306,
      "ented": 8307,
      "entry": 8308,
      "theless": 8309,
      "allest": 8310,
      "embrace": 8311,
      "tomor": 8312,
      "haul": 8313,
      "sofa": 8314,
      "veg": 8315,
      "begged": 8316,
      "stan": 8317,
      "stun": 8318,
      "stinking": 8319,
      "helore": 8320,
      "lect": 8321,
      "forces": 8322,
      "elig": 8323,
      "ooooh": 8324,
      "vert": 8325,
      "lil": 8326,
      "liar": 8327,
      "lifel": 8328,
      "dome": 8329,
      "escargot": 8330,
      "neces": 8331,
      "neices": 8332,
      "supre": 8333,
      "subur": 8334,
      "sums": 8335,
      "terror": 8336,
      "peice": 8337,
      "tile": 8338,
      "imprompt": 8339,
      "irate": 8340,
      "mole": 8341,
      "lox": 8342,
      "cano": 8343,
      "shep": 8344,
      "sheet": 8345,
      "grid": 8346,
      "gravel": 8347,
      "consul": 8348,
      "princ": 8349,
      "article": 8350,
      "uncommon": 8351,
      "newly": 8352,
      "hopeless": 8353,
      "assertive": 8354,
      "disgu": 8355,
      "disconnected": 8356,
      "shu": 8357,
      "ravio": 8358,
      "perk": 8359,
      "backup": 8360,
      "surve": 8361,
      "fainted": 8362,
      "mule": 8363,
      "fiber": 8364,
      "finishes": 8365,
      "doggo": 8366,
      "sphere": 8367,
      "spicy": 8368,
      "overeat": 8369,
      "nicely": 8370,
      "scal": 8371,
      "scener": 8372,
      "vied": 8373,
      "dime": 8374,
      "division": 8375,
      "ques": 8376,
      "manner": 8377,
      "parade": 8378,
      "intoler": 8379,
      "chewing": 8380,
      "icky": 8381,
      "playground": 8382,
      "ensor": 8383,
      "glory": 8384,
      "tahit": 8385,
      "fry": 8386,
      "fron": 8387,
      "blush": 8388,
      "naive": 8389,
      "naps": 8390,
      "navig": 8391,
      "drum": 8392,
      "paign": 8393,
      "puck": 8394,
      "vacc": 8395,
      "amazes": 8396,
      "smallest": 8397,
      "wrangl": 8398,
      "grandchildren": 8399,
      "grandparent": 8400,
      "scarred": 8401,
      "balling": 8402,
      "flute": 8403,
      "cows": 8404,
      "attach": 8405,
      "towns": 8406,
      "ancement": 8407,
      "easter": 8408,
      "positions": 8409,
      "calc": 8410,
      "tres": 8411,
      "aska": 8412,
      "heartfelt": 8413,
      "20k": 8414,
      "campaign": 8415,
      "sling": 8416,
      "charm": 8417,
      "completing": 8418,
      "presenter": 8419,
      "strayed": 8420,
      "landlor": 8421,
      "gency": 8422,
      "ficial": 8423,
      "airbnb": 8424,
      "conditions": 8425,
      "chronic": 8426,
      "flyers": 8427,
      "partners": 8428,
      "maths": 8429,
      "laughs": 8430,
      "prayers": 8431,
      "positively": 8432,
      "scooter": 8433,
      "swing": 8434,
      "swings": 8435,
      "approve": 8436,
      "tune": 8437,
      "hungover": 8438,
      "irrational": 8439,
      "growling": 8440,
      "network": 8441,
      "smashing": 8442,
      "ios": 8443,
      "avatar": 8444,
      "powerful": 8445,
      "educ": 8446,
      "floating": 8447,
      "honk": 8448,
      "diego": 8449,
      "chicks": 8450,
      "squash": 8451,
      "cubicle": 8452,
      "increased": 8453,
      "satisfact": 8454,
      "piss": 8455,
      "legit": 8456,
      "sandwhich": 8457,
      "logist": 8458,
      "employers": 8459,
      "universe": 8460,
      "bonuses": 8461,
      "slim": 8462,
      "properties": 8463,
      "detention": 8464,
      "welcoming": 8465,
      "notebook": 8466,
      "begins": 8467,
      "doub": 8468,
      "sprain": 8469,
      "smoked": 8470,
      "itude": 8471,
      "uncles": 8472,
      "stationed": 8473,
      "techni": 8474,
      "performances": 8475,
      "ounce": 8476,
      "carton": 8477,
      "produce": 8478,
      "napkins": 8479,
      "drawings": 8480,
      "gamble": 8481,
      "oreos": 8482,
      "motorist": 8483,
      "ignores": 8484,
      "emails": 8485,
      "belly": 8486,
      "bachelore": 8487,
      "defenitly": 8488,
      "bugatti": 8489,
      "negatively": 8490,
      "bearable": 8491,
      "psyched": 8492,
      "developing": 8493,
      "froze": 8494,
      "virgin": 8495,
      "duties": 8496,
      "remaining": 8497,
      "graphic": 8498,
      "adulting": 8499,
      "spirits": 8500,
      "affectionate": 8501,
      "battlefield": 8502,
      "participated": 8503,
      "70s": 8504,
      "neighbours": 8505,
      "pranks": 8506,
      "carelessness": 8507,
      "brushed": 8508,
      "desserts": 8509,
      "ometry": 8510,
      "ordinary": 8511,
      "squirrels": 8512,
      "entertaining": 8513,
      "dominate": 8514,
      "drawers": 8515,
      "cockroachs": 8516,
      "scotland": 8517,
      "scottish": 8518,
      "suspended": 8519,
      "reversed": 8520,
      "ctible": 8521,
      "tabby": 8522,
      "automatically": 8523,
      "fashioned": 8524,
      "lexus": 8525,
      "hoarder": 8526,
      "georgia": 8527,
      "scuba": 8528,
      "buzzing": 8529,
      "sneezed": 8530,
      "broadway": 8531,
      "cheesy": 8532,
      "intrigu": 8533,
      "shouted": 8534,
      "comparing": 8535,
      "sympath": 8536,
      "remodeling": 8537,
      "liquor": 8538,
      "indicators": 8539,
      "inevitable": 8540,
      "overflowed": 8541,
      "mistakenly": 8542,
      "enthusiastic": 8543,
      "deductible": 8544,
      "evacuate": 8545,
      "noisy": 8546,
      "litlle": 8547,
      "hustle": 8548,
      "troubling": 8549,
      "destructive": 8550,
      "procedure": 8551,
      "girlfiend": 8552,
      "restaraunt": 8553,
      "kudos": 8554,
      "organs": 8555,
      "mystery": 8556,
      "tolerate": 8557,
      "austin": 8558,
      "hulk": 8559,
      "lmao": 8560,
      "narcis": 8561,
      "skeptical": 8562,
      "thailand": 8563,
      "atmosphere": 8564,
      "eligible": 8565,
      "impromptu": 8566,
      "scenery": 8567,
      "intolerant": 8568,
      "wrangler": 8569,
      "satisfaction": 8570,
      "bachelorette": 8571,
      "virginia": 8572,
      "36": 8573,
      "55": 8574,
      "aim": 8575,
      "bday": 8576,
      "cv": 8577,
      "cact": 8578,
      "ctors": 8579,
      "dwell": 8580,
      "doom": 8581,
      "ea": 8582,
      "eek": 8583,
      "eight": 8584,
      "epest": 8585,
      "gf": 8586,
      "gay": 8587,
      "gour": 8588,
      "hound": 8589,
      "iju": 8590,
      "imes": 8591,
      "jets": 8592,
      "kie": 8593,
      "lem": 8594,
      "lide": 8595,
      "lending": 8596,
      "mt": 8597,
      "mam": 8598,
      "mturking": 8599,
      "nin": 8600,
      "nif": 8601,
      "n64": 8602,
      "ored": 8603,
      "osity": 8604,
      "pg": 8605,
      "pir": 8606,
      "rating": 8607,
      "sd": 8608,
      "sass": 8609,
      "sip": 8610,
      "scaring": 8611,
      "swarmed": 8612,
      "tad": 8613,
      "uch": 8614,
      "vot": 8615,
      "wid": 8616,
      "ycle": 8617,
      "zheim": 8618,
      "thed": 8619,
      "eric": 8620,
      "eria": 8621,
      "inqu": 8622,
      "inos": 8623,
      "insured": 8624,
      "infidelity": 8625,
      "towed": 8626,
      "rea": 8627,
      "repr": 8628,
      "relied": 8629,
      "resi": 8630,
      "rewards": 8631,
      "resort": 8632,
      "retro": 8633,
      "usally": 8634,
      "otics": 8635,
      "entially": 8636,
      "entrepr": 8637,
      "thesis": 8638,
      "meowing": 8639,
      "agi": 8640,
      "ager": 8641,
      "agram": 8642,
      "alar": 8643,
      "alle": 8644,
      "alert": 8645,
      "alaska": 8646,
      "alzheim": 8647,
      "emar": 8648,
      "isal": 8649,
      "tomistic": 8650,
      "hable": 8651,
      "agents": 8652,
      "arctic": 8653,
      "youll": 8654,
      "beth": 8655,
      "beloved": 8656,
      "stack": 8657,
      "leaf": 8658,
      "lecture": 8659,
      "forgave": 8660,
      "rics": 8661,
      "eler": 8662,
      "chal": 8663,
      "chur": 8664,
      "chats": 8665,
      "admi": 8666,
      "amole": 8667,
      "outing": 8668,
      "lick": 8669,
      "dose": 8670,
      "wee": 8671,
      "ico": 8672,
      "roid": 8673,
      "roses": 8674,
      "aretha": 8675,
      "thern": 8676,
      "acamole": 8677,
      "endure": 8678,
      "pean": 8679,
      "peppers": 8680,
      "abl": 8681,
      "noone": 8682,
      "irks": 8683,
      "coke": 8684,
      "colo": 8685,
      "canyon": 8686,
      "notices": 8687,
      "shey": 8688,
      "update": 8689,
      "antarctic": 8690,
      "expl": 8691,
      "extor": 8692,
      "exposed": 8693,
      "grau": 8694,
      "heres": 8695,
      "hermit": 8696,
      "hershey": 8697,
      "prestig": 8698,
      "goods": 8699,
      "concl": 8700,
      "congrad": 8701,
      "consol": 8702,
      "debris": 8703,
      "deepest": 8704,
      "artwork": 8705,
      "artistic": 8706,
      "union": 8707,
      "unru": 8708,
      "united": 8709,
      "unpacked": 8710,
      "uncondition": 8711,
      "unloading": 8712,
      "ssss": 8713,
      "carpool": 8714,
      "weeknd": 8715,
      "romance": 8716,
      "cave": 8717,
      "saver": 8718,
      "saint": 8719,
      "sausage": 8720,
      "guacamole": 8721,
      "distri": 8722,
      "disconnect": 8723,
      "greener": 8724,
      "shing": 8725,
      "shall": 8726,
      "ilites": 8727,
      "compress": 8728,
      "geometry": 8729,
      "backups": 8730,
      "harry": 8731,
      "greater": 8732,
      "fax": 8733,
      "wentz": 8734,
      "bob": 8735,
      "boiling": 8736,
      "excitied": 8737,
      "kidney": 8738,
      "fighter": 8739,
      "spelled": 8740,
      "overly": 8741,
      "overdue": 8742,
      "loops": 8743,
      "stocks": 8744,
      "stocking": 8745,
      "posure": 8746,
      "popt": 8747,
      "scoring": 8748,
      "sonic": 8749,
      "viet": 8750,
      "diy": 8751,
      "diver": 8752,
      "diligent": 8753,
      "buck": 8754,
      "buried": 8755,
      "essential": 8756,
      "bleh": 8757,
      "identity": 8758,
      "parad": 8759,
      "pros": 8760,
      "sounding": 8761,
      "prettiest": 8762,
      "helpless": 8763,
      "trim": 8764,
      "trigger": 8765,
      "needle": 8766,
      "needles": 8767,
      "chevy": 8768,
      "trusts": 8769,
      "sentence": 8770,
      "luch": 8771,
      "wol": 8772,
      "undies": 8773,
      "shovel": 8774,
      "anxiously": 8775,
      "cougar": 8776,
      "ultras": 8777,
      "setup": 8778,
      "tennes": 8779,
      "believing": 8780,
      "undermine": 8781,
      "crust": 8782,
      "devasted": 8783,
      "clam": 8784,
      "drone": 8785,
      "collector": 8786,
      "colleges": 8787,
      "bitten": 8788,
      "persons": 8789,
      "pajama": 8790,
      "remembers": 8791,
      "mariju": 8792,
      "realy": 8793,
      "ruth": 8794,
      "decides": 8795,
      "amazement": 8796,
      "smith": 8797,
      "leather": 8798,
      "busiest": 8799,
      "optomistic": 8800,
      "hulu": 8801,
      "traits": 8802,
      "memorabili": 8803,
      "cuted": 8804,
      "headlights": 8805,
      "desires": 8806,
      "password": 8807,
      "breakins": 8808,
      "tremend": 8809,
      "promotions": 8810,
      "choke": 8811,
      "healthcare": 8812,
      "heartwarming": 8813,
      "curls": 8814,
      "rainstorm": 8815,
      "snes": 8816,
      "freeze": 8817,
      "camry": 8818,
      "imagin": 8819,
      "images": 8820,
      "imagining": 8821,
      "congratulate": 8822,
      "genre": 8823,
      "bodybuilding": 8824,
      "sunglasses": 8825,
      "covering": 8826,
      "hotdog": 8827,
      "picks": 8828,
      "messes": 8829,
      "messaged": 8830,
      "resulted": 8831,
      "corpor": 8832,
      "rental": 8833,
      "quicker": 8834,
      "mailed": 8835,
      "keychain": 8836,
      "possession": 8837,
      "50s": 8838,
      "commute": 8839,
      "commuting": 8840,
      "competitor": 8841,
      "pots": 8842,
      "potter": 8843,
      "potentially": 8844,
      "engage": 8845,
      "candle": 8846,
      "scram": 8847,
      "avid": 8848,
      "powerpoint": 8849,
      "scratcher": 8850,
      "generator": 8851,
      "denying": 8852,
      "dresses": 8853,
      "socializing": 8854,
      "blackjack": 8855,
      "honked": 8856,
      "honored": 8857,
      "kitties": 8858,
      "sque": 8859,
      "cricket": 8860,
      "qualities": 8861,
      "purple": 8862,
      "pursuing": 8863,
      "strangely": 8864,
      "majoring": 8865,
      "majority": 8866,
      "sandals": 8867,
      "tourn": 8868,
      "royal": 8869,
      "bennet": 8870,
      "ggled": 8871,
      "humor": 8872,
      "advances": 8873,
      "milli": 8874,
      "thrive": 8875,
      "continuing": 8876,
      "filters": 8877,
      "pesky": 8878,
      "emerald": 8879,
      "instagram": 8880,
      "peeve": 8881,
      "skype": 8882,
      "fatigu": 8883,
      "tracked": 8884,
      "contacts": 8885,
      "wisely": 8886,
      "connecting": 8887,
      "fluffy": 8888,
      "pitt": 8889,
      "shocker": 8890,
      "crosswalk": 8891,
      "labrad": 8892,
      "brighten": 8893,
      "crawlies": 8894,
      "engineer": 8895,
      "questioned": 8896,
      "buns": 8897,
      "bipolar": 8898,
      "grief": 8899,
      "relev": 8900,
      "extent": 8901,
      "attract": 8902,
      "pointing": 8903,
      "belli": 8904,
      "bacon": 8905,
      "crackers": 8906,
      "hills": 8907,
      "replied": 8908,
      "sucker": 8909,
      "performer": 8910,
      "snowboarding": 8911,
      "gravy": 8912,
      "cheerleading": 8913,
      "bbish": 8914,
      "steaks": 8915,
      "athletes": 8916,
      "flaunting": 8917,
      "unicycle": 8918,
      "severely": 8919,
      "electrical": 8920,
      "salads": 8921,
      "purposely": 8922,
      "bottles": 8923,
      "earns": 8924,
      "budgeted": 8925,
      "tempting": 8926,
      "strive": 8927,
      "rupt": 8928,
      "grapes": 8929,
      "blossom": 8930,
      "eneur": 8931,
      "decorations": 8932,
      "mechanics": 8933,
      "adapt": 8934,
      "foolish": 8935,
      "breathtaking": 8936,
      "scammed": 8937,
      "hooked": 8938,
      "masterchef": 8939,
      "priority": 8940,
      "clueless": 8941,
      "galax": 8942,
      "swerving": 8943,
      "youthful": 8944,
      "critic": 8945,
      "twenties": 8946,
      "initi": 8947,
      "initially": 8948,
      "snuggled": 8949,
      "jittery": 8950,
      "reservation": 8951,
      "tehre": 8952,
      "shrieked": 8953,
      "comforted": 8954,
      "scrape": 8955,
      "gentle": 8956,
      "prints": 8957,
      "rumors": 8958,
      "victory": 8959,
      "whispered": 8960,
      "raccoons": 8961,
      "weakness": 8962,
      "robbery": 8963,
      "figur": 8964,
      "judgmental": 8965,
      "features": 8966,
      "threatening": 8967,
      "difficulty": 8968,
      "insults": 8969,
      "neurotic": 8970,
      "modern": 8971,
      "moderation": 8972,
      "surroundings": 8973,
      "forecast": 8974,
      "combination": 8975,
      "boils": 8976,
      "politician": 8977,
      "noodle": 8978,
      "instincts": 8979,
      "mushy": 8980,
      "wireless": 8981,
      "millenial": 8982,
      "knives": 8983,
      "george": 8984,
      "bruised": 8985,
      "sneeze": 8986,
      "efficient": 8987,
      "stitches": 8988,
      "chubby": 8989,
      "guarantee": 8990,
      "waterslide": 8991,
      "obedience": 8992,
      "converse": 8993,
      "recruiting": 8994,
      "proceeded": 8995,
      "blinker": 8996,
      "antibiotics": 8997,
      "vividly": 8998,
      "recycling": 8999,
      "strategy": 9000,
      "admirable": 9001,
      "orientation": 9002,
      "scientific": 9003,
      "stretch": 9004,
      "conventions": 9005,
      "audition": 9006,
      "technician": 9007,
      "nhl": 9008,
      "sizes": 9009,
      "crafts": 9010,
      "electronics": 9011,
      "announcement": 9012,
      "fascin": 9013,
      "triathlon": 9014,
      "caregiver": 9015,
      "angrily": 9016,
      "jousting": 9017,
      "investors": 9018,
      "integrity": 9019,
      "confirmed": 9020,
      "braclet": 9021,
      "earthquake": 9022,
      "nutrition": 9023,
      "assaulted": 9024,
      "duplex": 9025,
      "republicans": 9026,
      "supreme": 9027,
      "ravioli": 9028,
      "tahiti": 9029,
      "navigation": 9030,
      "landlords": 9031,
      "cactus": 9032,
      "gourmet": 9033,
      "sassy": 9034,
      "resili": 9035,
      "entrepreneur": 9036,
      "admired": 9037,
      "colored": 9038,
      "antarctica": 9039,
      "graudated": 9040,
      "prestigious": 9041,
      "congradulations": 9042,
      "unruly": 9043,
      "compressor": 9044,
      "ultrasound": 9045,
      "tennessee": 9046,
      "marijuana": 9047,
      "memorabilia": 9048,
      "labrador": 9049,
      "galaxy": 9050,
      "230": 9051,
      "32": 9052,
      "360": 9053,
      "7th": 9054,
      "89": 9055,
      "9th": 9056,
      "aq": 9057,
      "awards": 9058,
      "batch": 9059,
      "biz": 9060,
      "bones": 9061,
      "cc": 9062,
      "dv": 9063,
      "dens": 9064,
      "dps": 9065,
      "drained": 9066,
      "dancer": 9067,
      "eing": 9068,
      "eater": 9069,
      "ecli": 9070,
      "evalu": 9071,
      "einstein": 9072,
      "fare": 9073,
      "fice": 9074,
      "fered": 9075,
      "gou": 9076,
      "gid": 9077,
      "ghest": 9078,
      "hast": 9079,
      "irel": 9080,
      "jb": 9081,
      "jk": 9082,
      "ki": 9083,
      "ko": 9084,
      "luse": 9085,
      "lsat": 9086,
      "leng": 9087,
      "mph": 9088,
      "oi": 9089,
      "oz": 9090,
      "olot": 9091,
      "ology": 9092,
      "pork": 9093,
      "panc": 9094,
      "rens": 9095,
      "rise": 9096,
      "s9": 9097,
      "sane": 9098,
      "swore": 9099,
      "tn": 9100,
      "tx": 9101,
      "twe": 9102,
      "tread": 9103,
      "tasked": 9104,
      "twel": 9105,
      "tapped": 9106,
      "ude": 9107,
      "vul": 9108,
      "vending": 9109,
      "vvy": 9110,
      "vably": 9111,
      "xed": 9112,
      "onds": 9113,
      "inj": 9114,
      "indoors": 9115,
      "anate": 9116,
      "anime": 9117,
      "reck": 9118,
      "reacting": 9119,
      "ingly": 9120,
      "otes": 9121,
      "megr": 9122,
      "ality": 9123,
      "sities": 9124,
      "hacked": 9125,
      "ara": 9126,
      "aroo": 9127,
      "arian": 9128,
      "solit": 9129,
      "soever": 9130,
      "bees": 9131,
      "beast": 9132,
      "becu": 9133,
      "beaver": 9134,
      "beeping": 9135,
      "stated": 9136,
      "stalled": 9137,
      "rier": 9138,
      "rival": 9139,
      "elim": 9140,
      "elements": 9141,
      "ooper": 9142,
      "ooped": 9143,
      "ching": 9144,
      "chlore": 9145,
      "wifi": 9146,
      "vernment": 9147,
      "etly": 9148,
      "outer": 9149,
      "outta": 9150,
      "outage": 9151,
      "limb": 9152,
      "dozen": 9153,
      "nev": 9154,
      "seam": 9155,
      "selection": 9156,
      "ustered": 9157,
      "ropes": 9158,
      "ppi": 9159,
      "feast": 9160,
      "feature": 9161,
      "peak": 9162,
      "goof": 9163,
      "tiles": 9164,
      "butts": 9165,
      "nomin": 9166,
      "iraq": 9167,
      "moly": 9168,
      "cosign": 9169,
      "colog": 9170,
      "noticing": 9171,
      "whatsoever": 9172,
      "shee": 9173,
      "fulfilled": 9174,
      "excur": 9175,
      "existed": 9176,
      "grain": 9177,
      "ouses": 9178,
      "goodies": 9179,
      "ellite": 9180,
      "conscience": 9181,
      "dele": 9182,
      "uns": 9183,
      "unreal": 9184,
      "unlucky": 9185,
      "unusually": 9186,
      "untill": 9187,
      "unsettling": 9188,
      "carpets": 9189,
      "anyhow": 9190,
      "ura": 9191,
      "indiana": 9192,
      "willpower": 9193,
      "caus": 9194,
      "caked": 9195,
      "capt": 9196,
      "yearn": 9197,
      "savers": 9198,
      "sailed": 9199,
      "savvy": 9200,
      "thinner": 9201,
      "donut": 9202,
      "typing": 9203,
      "guine": 9204,
      "disagre": 9205,
      "disowned": 9206,
      "grease": 9207,
      "shin": 9208,
      "persis": 9209,
      "everyon": 9210,
      "venue": 9211,
      "fies": 9212,
      "filip": 9213,
      "spouses": 9214,
      "offense": 9215,
      "overreacting": 9216,
      "hardship": 9217,
      "waits": 9218,
      "posters": 9219,
      "pomegr": 9220,
      "sci": 9221,
      "scrap": 9222,
      "mores": 9223,
      "ables": 9224,
      "terrier": 9225,
      "terrifies": 9226,
      "recording": 9227,
      "recluse": 9228,
      "longs": 9229,
      "prob": 9230,
      "proved": 9231,
      "needy": 9232,
      "mist": 9233,
      "misunderstanding": 9234,
      "barn": 9235,
      "fungus": 9236,
      "confid": 9237,
      "chew": 9238,
      "letdown": 9239,
[...]
